0000101101000011
0000100011010000
1111111110100100
0000000111100110
0000100011100111
1111111110000111
0001001000001000
0000010001000001
0000001010110000
0000001110110110
1111000000110011
0000011010110001
0000101001010000
1111011001100110
1111110010101010
0001011101001000
0001000011010001
0000111011000110
1111101000100111
0000110110001010
0000100101010110
1111000010110111
0000011101101101
0000111001000110
0000000101110100
0000101000001001
1110010100110010
0000000011111111
0000011000110101
1111001010011001
0001010001000011
1111101101001100
1111110101001010
1111100101100000
0000011101010001
1101111000011010
1111110110100101
0000010011110011
0000001101010011
0000010110100010
0000101101000010
0000010010010110
0000011110010010
0000000011111001
0000110000100010
1111101100011001
0000000100101010
0000100001101100
