000000000000000100000001000000000000000100000001111111110000000000000001
000000000000000000000000000000000000000100000000000000000000000000000000
111111101111110111111110000000001111111011111111000000000000000011111111
000000000000000000000001000000000000001100000001000000000000000000000001
000000001111111111111111111111111111100011111110000000001111111111111111
111111101111111000000000111111101111100011111110111111101111111011111111
000000001111111111111111000000001111111011111110000000000000000000000000
111111111111111111111111111111111111111000000000000000000000000100000001
000000000000000000000000000000000000000000000000000000000000000000000000
000000000000000000000000000000001111110000000000000000001111111111111111
000000010000000000000000000000001111100011111110000000001111111011111111
111111111111111111111111111111111111101111111111111111111111111111111111
000000010000000000000000000000001111101100000000000000001111111100000000
111111101111111000000000111111011111110100000001111111100000000000000001
000000000000000100000000000000010000011000000010000000000000000100000010
111111100000000000000000000000000000100000000010000000000000001000000010
111111101111110111111111111111011111101100000000000000000000000000000001
111111111111111100000000111111111111110011111111111111111111111111111111
000000000000000000000000000000000000001100000001000000000000000000000001
000000000000000000000000000000001111111011111111000000001111111111111111
000000001111111111111111111111111111100011111110111111111111111011111110
000000001111111111111111000000001111111011111111000000010000000100000000
000000000000000000000000000000000000010000000001000000000000000100000001
111111101111111111111111111111111111101111111111111111111111111111111111
000000011111111100000000000000001111100011111110000000001111111011111111
000000000000000000000000000000001111101100000000000000001111111100000000
111111110000000000000000000000000000010100000001000000000000000100000001
111111110000000000000001000000000000100000000010000000000000001000000010
111111110000000000000000000000000000100000000010000000000000001000000010
000000000000000100000000000000010000001000000001000000000000000000000001
111111110000000011111111111111111111111100000000111111110000000000000000
111111110000000000000000000000000000011100000010000000000000001000000010
000000010000000000000001111111111111101011111111000000001111111100000000
000000000000000000000000000000000000010100000010000000000000000100000010
111111110000000000000000000000000000011000000001000000000000000100000001
111111111111111111111111111111111111110011111111111111111111111111111111
111111110000000000000000111111111111110111111111000000001111111111111111
111111111111111000000000111111101111000011111110111111111111110111111110
111111100000000000000000000000000000100000000010000000000000001000000010
111111100000000000000001111111001111100000000000111111001111111100000000
000000001111111111111111000000001111110111111111000000001111111111111111
111111111111111111111111111111111111111011111111111111110000000011111111
000000000000000000000000000000001111111100000000000000000000000000000000
111111111111111111111111111111111111110111111111000000001111111111111111
111111101111111111111111111111111111101111111111111111111111111111111111
000000000000000000000000000000010000010000000001000000000000000100000001
000000000000000100000001000000010000010000000001000000000000000100000001
111111111111111111111111111111111111110111111111111111111111111111111111
000000010000001000000000000000010000001011111110111111001111110011111011
000000000000000000000000000000000000000000000000000000000000000000000000
111111101111110011111110000000000000000111111111000000100000001100000010
111111110000000100000000000000000000110000000010000000000000000100000001
111111111111111111111111111111111111100111111111111111111111111111111111
000000001111110111111111111111101111000111111101111111101111110111111110
000000011111111111111101000000101111111111111100000000010000001011111110
000000001111111011111111111111111110110111111110000000001111111111111110
111111111111111111111111111111111111111011111111111111111111111111111111
000000000000000000000000000000000000000100000000000000000000000000000000
000000010000000100000000000000000000010100000000000000000000000000000000
000000000000000000000000000000000000000000000000000000000000000000000000
000000000000000100000000000000010000011000000001000000000000000000000000
111111110000001011111111000000010000011100000001111111100000000011111110
000000000000000011111111000000010000101000000001111111110000000100000000
000000010000000100000001000000100000011000000001000000010000001000000010
111111101111111100000000111111010000001000000010111111110000001100000100
000000000000000000000000000000001111111100000000000000000000000000000000
000000000000000100000000000000010000110100000010111111110000000100000001
000000010000000000000001000000001111110000000000000000000000000000000000
000000000000000011111111111111111111010111111110111111111111111011111110
000000011111111111111101000000100000010011111011000000010000001011111110
111111110000000100000000000000000000101000000010111111110000000100000001
000000000000000000000000000000010000001000000000000000010000000000000000
000000010000000000000000000000010000000111111111000000010000000100000001
111111111111111111111111000000001111111100000000111111111111111111111111
111111110000000011111111000000000000001000000001111111111111111100000000
111111110000000000000000000000010000101100000010111111110000000100000001
000000000000000100000000000000010000101100000001000000000000000100000001
000000000000000100000000000000010000100100000001000000000000000100000000
111111110000000011111111000000001111111111111111111111111111111111111110
000000000000000000000000000000010000001000000001000000000000000000000001
000000000000000000000001111111110000000000000001000000000000000000000000
000000000000000100000000000000010001000000000010000000000000001000000010
000000000000001000000001000000100000101100000010000000010000001000000010
000000000000000000000000000000000000000000000000000000000000000000000000
111111111111111111111111111111111111110011111111111111111111111111111111
000000000000000000000001000000001111100100000001000000000000000000000001
000000001111111111111111111111111111100011111111000000001111111100000000
111111100000000100000010111110011111110100000010111110111111110100000000
000000001111111100000000000000001111101111111111000000001111111111111111
111111111111111111111111111111111111110111111111111111111111111111111111
000000001111111111111111111111111111110011111111000000001111111111111111
111111111111111111111111111111111111110111111111111111111111111111111111
000000010000000100000001000000010000010000000001000000010000000100000001
000000000000000100000001000000010000110000000010000000000000000100000010
000000010000001000000001000000010001000100000010000000000000001000000001
000000000000000000000000000000000000001000000000000000000000000000000000
111111111111100111111100111110101101010111111100000000000000000100000101
000000000000000000000000000000011111101100000001000000100000001000000011
000000110000011000000011000000110000111000000101000001000000011100000011
000000000000000000000000111111110000000011111111111111111111111111111111
000000010000001000000001000000011111111100000000000000010000000000000001
111111001111001111111001111100111100110011110101111111101111100100000001
000000101111111100000010111111111111010000000001000000000000000000000011
000000100000000100000001111111111111101111111111000000010000000000000001
111111111111111111111111000000001111011000000000000000010000000100000001
000000100000001000000001000000010000000100000000000000010000000000000000
000001000000001100000011000000011111111100000000000000001111111100000001
111111111111111111111111000000001111100000000001000000100000001100000011
000000100000001000000010000000000000010000000000111111111111111100000000
111110111111010111111010111101011011111111110101111111011111100011111111
000000010000000100000001000000000000010100000000000000001111111100000000
000000010000000100000010000000000000010000000001000000010000000100000001
000000100000010100000001000001010000101100000011000001000000011100000011
111111111111111111111111000000001111011000000000000000010000001000000010
000000010000000100000001000000000000001111111111000000001111111111111111
000000000000000000000000000000001111010000000001000000100000001000000010
000000010000000000000000000000001111100011111111000000010000000000000010
000000110000000100000100111111111111010000000101000000010000001000000101
000000010000000100000001000000000000100000000000111111111111111111111111
000000001111111100000000000000001111100100000000000000010000000100000010
000000110000001000000011000000001111111000000001000000000000000100000010
000000001111111111111111111111101111011111111110111111101111111011111111
000000000000000000000001111111110000000111111111000000001111111111111111
000000010000000100000001000000000000011100000000000000000000000000000000
000000000000000000000000111111111111111111111111111111111111111111111111
000000010000000100000001000000000000001100000000111111111111111111111111
111111111111111100000000111111011110111111111110111111111111111000000001
000000010000000100000001000000000000000100000000000000010000000000000001
000000010000000100000000000000011111011111111111000000001111111111111111
000000010000000100000001000000000000001111111111111111111111111011111111
000000010000000000000010000000000000001000000001000000000000000000000001
111111111111111100000000000000011111101000000001000000100000001000000011
000000000000000011111111000000011111111100000001000000100000001100000011
000000100000000000000001000000001111101000000000000000000000000000000001
000000100000001000000010000000010000001100000001000000100000001000000001
111111001111100111111011111111111110100011111001000000100000000100000001
111111111111111111111111000000011111101000000001000000100000001100000011
111111111111111111111111000000011111100000000001000000110000001100000100
111111111111111111111111000000011111100100000001000000110000001100000011
111111111111111111111111000000011111100100000010000000110000010000000100
111111111111111111111111000000001111010100000000000000010000001000000010
000000000000000000000000111111111111111111111111111111101111111011111110
000000100000001000000010111111110000010011111111111111101111111011111110
111111111111111111111111000000001111100000000001000000100000001100000011
000000000000000011111111111111111111100111111110111111101111111111111110
111111111111111111111111000000001111110100000000000000000000000000000000
111111111111111011111111000000010000000100000000000000010000000100000001
000000000000000100000000000000010000000100000001000000000000000000000000
111111111111111111111111111111111111010111111111111111111111111111111111
000000001111110100000000111111011110101111111110000000001111110100000000
000000001111111111111111111111111111010111111101000000001111111111111111
111111111111111011111110111111101110110011111101111111101111110111111101
111111111111111111111111111111111111110011111111111111111111111111111111
000000000000000000000000000000000000010000000001000000000000000100000001
111111110000000100000000000000010000100000000011000000000000001000000010
111111111111111111111111000000001111111111111111000000001111111111111111
000000000000000100000001000000010000011000000010000000000000001000000010
000000000000000000000001000000000000011111111111000000010000000100000000
000000000000000100000001000000010000001100000001000000000000000100000001
000000010000000000000000000000001111010111111110000000001111111111111111
000000010000000000000001000000010000000100000010000000000000001000000001
000000000000000000000000000000000000000000000000000000000000000000000000
000000000000000100000001000000010000001000000001000000000000000100000001
111111111111111111111111111111111111110111111111000000000000000000000000
000000001111111111111111111111111111011111111111111111111111111111111111
000000000000000011111111000000000000001011111110000000000000000011111110
000000000000000100000001000000010000001000000001000000000000000100000001
000000010000000000000001000000000000000100000000000000010000000000000000
111111111111111111111111111111111111110111111111000000000000000000000000
000000000000000000000000000000001111100000000000000000001111111100000000
000000000000000000000000000000001111101100000000000000000000000000000000
000000000000000000000000000000001111111000000000000000000000000000000000
000000000000000100000001000000001111110100000000000000000000000000000000
000000000000000100000001000000010000011000000001000000000000000100000001
111111111111111111111110111111101111011011111101111111111111111111111111
000000010000000000000000111111111111100011111111000000001111111111111111
111111110000000000000001000000001111111000000010000000000000000100000001
000000000000000100000000000000010000000000000001000000000000000000000000
111111111111111011111110111111101110100011111100111111101111110011111101
000000000000000000000000000000000000000000000000000000000000000011111111
000000001111111100000000000000001111111011111111000000001111111111111111
111111101111110011111110111111001101110111111100111111101111101111111101
000000011111111100000000111111111111010111111110000000001111111111111110
111111111111111100000001111111011111100011111111111111111111111100000000
000000001111111100000000000000000000000000000000000000000000000000000000
111111111111111111111111111111111111110111111111111111111111111111111111
111111111111111111111111000000000000000100000000000000000000000000000000
111111111111111111111111111111111111111011111111111111111111111111111111
000000010000000000000000000000001111111111111111000000010000000000000000
000000000000000000000000000000001111111000000000000000000000000000000000
000000010000000100000001000000010000011000000010000000000000000100000001
111111110000000011111111000000001111111100000000000000001111111111111111
000011000000011100000001000001111111011111101110111111011111001011110000
000000010000000100000010000000011111111100000010000000010000000100000001
000000111111111100000000000000100000011000000100000000000000010000000000
000000000000000111111111000000010000010111111111000000001111111111111110
000001000000001000000010000000100000000000000000000000010000000011111110
000001000000001111111101000000011110111011101010111111001110110011100011
000001110000001111111010000001001111100111110010000000111111110111110101
000001010000000100000001000000011111101000000000000000010000000011111110
111111110000000011111111111111111111110111111111111111111111111011111110
000000010000001000000010000000010000001100000010000000000000000000000000
000000100000001100000000000000010000000111111110111111111111110111111011
000000010000000100000001000000011111111000000000111111110000000000000000
000000100000001011111111000000010000001011111110111111111111111011111011
000010100000011111111111000001011111011111101010000000001110101011100010
000000000000001000000001000000010000011000000001000000000000000111111111
000000010000000000000000000000000000000000000000000000000000001000000001
000000100000001100000111111110000000001000001010111111110000110100001010
000000010000000100000001000000011111110111111111000000000000000000000000
000000010000001000000001000000100000011000000000000000001111111111111110
000000110000001000000010000000100000000000000000000000010000000000000001
000001100000001100000011000000100000000000000000000000000000000011111110
000010100000001011111001000010101111011011110010000001101111101111110100
111111110000000100000001000000000000010100000001000000000000000011111111
000000110000000100000000000000100000000000000000000000010000000100000000
000001000000001100000001000000110000001111111111000000010000000111111111
000001010000001111111111000000110000000011111100111111111111110011111010
111111110000000000000000111111110000000000000000111111110000000011111111
111111110000000100000001000000000000010000000001000000000000000100000000
000000000000000100000001000000010000001100000000000000010000000100000001
000000010000001000000000000000010000010100000000000000000000000011111111
000001000000001011111101000000110000001011111001111111111111101111110110
000000010000000000000000000000001111110100000000000000000000000000000000
000000100000001000000001000000011111111000000001000000011111111111111111
000000000000000100000000000000010000011000000000000000000000000011111110
111111110000000000000001000000000000000000000000000000010000000100000001
000000000000000100000001000000001111111100000000111111110000000000000000
000000100000000100000001000000011111111000000001000000000000000000000000
000001010000010000000010000001001111101111111101000000011111111011111110
000000001111111100000000111111101111110100000001111111110000001000000001
000001110000010000000000111111011111011111111010111110111111110111111011
000000010000000011111111000000001111100111111111111111111111111111111111
000000010000001000000010000000011111111000000001000000000000000000000001
000000000000000000000000111111111111110000000000111111110000000000000001
000000000000000000000000000000001111110000000000111111110000000000000000
000001000000000111111111000000101111110111111110000000001111111111111111
111111110000000100000000000000000000001111111111111111111111111111111110
000000000000001000000000000000010000011100000000000000001111111111111101
000000010000000100000000000000001111110100000000111111110000000000000000
000000000000000011111110000000000000011000000000111111111111111100000000
000000000000000000000000000000010000101100000001000000010000000100000001
000000000000000100000000000000000000011100000001000000000000000000000000
000000000000000000000000000000001111111000000000000000000000000000000000
000000000000000000000000000000000000001000000000000000000000000000000000
000000010000000000000000000000011111111011111111000000010000000000000000
000000000000000000000000000000000000011000000000000000000000000000000000
000000000000000000000000000000001111111100000000000000000000000000000000
000000000000000100000001000000010000101000000001000000010000000100000001
000000000000000000000000000000000000001000000000000000000000000000000000
000000010000000000000000000000000000010000000000000000000000000000000000
000000010000000100000001000000010000111000000010000000010000001000000010
000000000000000000000000000000000000001100000000000000000000000000000000
000000010000001100000001000000010000011000000001000000000000001000000000
000000001111111111111111000000001111110100000000000000000000000000000000
000000000000000000000000000000000000010100000000000000000000000000000000
000000100000000111111110000000010000010100000000111111110000000111111110
000000010000000100000001000000010000110000000001000000010000000100000001
000000000000000011111111000000001111111000000000000000000000000011111111
000000010000000100000001000000010000101000000001000000010000000100000001
000000010000000100000001000000010000011000000001000000010000000100000001
000000000000000100000000111111110000011000000000000000000000000100000001
000000000000000000000000000000001111111000000000000000000000000000000000
000000000000000100000001000000010000100100000001000000010000000100000001
000000000000000000000000000000000000001000000000000000000000000000000000
000000000000000000000000000000000000000000000000000000000000000000000000
000000000000000000000000111111111111110011111111000000000000000011111111
000000001111111111111111000000001111110111111111000000000000000000000000
000000000000000000000000000000000000000100000000000000000000000000000000
000000000000000011111111000000001111110100000000000000000000000011111111
000000000000000000000000000000000000010000000000000000000000000000000000
000000000000000000000000000000000000001000000000000000000000000000000000
000000010000000100000000000000010000001100000000000000000000000100000000
000000000000000000000000000000001111110000000000000000000000000000000000
000000000000000000000000000000010000100000000000000000000000000100000000
000000010000000100000001000000010000110000000001000000010000000100000001
000000010000000100000001000000010000101000000001000000010000001000000010
000000010000000000000000000000010000010000000000000000000000000111111111
000000000000000000000000000000000000001100000000000000000000000000000000
000000000000000011111110000000000000010111111111000000010000001000000000
000000010000000100000001000000010000110000000010000000010000000100000010
000000010000000100000001000000010000110100000010000000010000001000000010
000000010000000100000001000000010000111000000010000000010000001000000010
000000010000000100000001000000010001000000000010000000010000001000000010
000000000000000100000001000000010000100100000001000000010000000100000001
000000000000000000000000000000000000000100000000000000000000000000000000
000000000000000000000000000000001111111000000000000000000000000000000000
000000010000000100000001000000010000111000000010000000010000001000000010
000001010000011100000010000001100000001100000011111111110000000000000010
000000010000000000000000000000000000010011111111000000001111111111111111
111111111111101111111111111110101100101011111001000000100000010100000101
111111110000000000000000000000001111110000000010000000010000001000000010
000000011111111100000000000000001111101111111110000000010000000000000000
000000001111101000000000111110111100110011111111111111110000000000000101
000000010000000011111110000000111111100011111111000000010000000000000010
000000100000000000000000000000011111111011111101000000100000000100000000
000000000000000000000000000000000000000111111111000000000000000011111111
000000100000000100000000000000010000010000000000000000000000000000000000
000000100000000100000000000000001111111000000001000000000000000000000010
000000010000000000000000111111110000010011111111000000001111111111111111
000000100000000100000000000000011111110100000001000000010000000100000010
111111111111011111111101111110011100011011111011111111001111101100000010
000000010000000100000000000000100000000000000010000000100000001000000010
000000001111111100000000000000000000000011111111000000010000000000000000
000000011111011100000000111110001010101100000001000000100000010100001001
000000000000000000000000000000000000010111111111000000000000000011111111
000000000000000000000000000000011111110000000010000000010000001000000010
000000110000000100000010000000010001000000000000000000010000000000000000
000001000000000100000001000000010000010111111111000000011111111111111111
000000110000000111111110000000111111011111111011000000010000001000000001
000000000000000000000000000000011111101100000010000000010000001000000010
000000001111111100000000000000000000010100000000000000000000000000000000
000000010000000100000000000000001111111111111111000000010000000100000001
111111101111111000000000111111101111100100000001000000000000000100000011
000000010000000100000001000000100000001000000010000000010000000100000001
000000000000000000000000000000100000001100000010000000010000001000000010
000000000000000000000000000000100000010100000010000000100000001000000010
000000000000000000000000000000011111111000000001000000010000000100000010
000000001111111111111111000000001111010011111110000000000000000000000010
000000001111111100000000000000000000000100000000000000000000000000000000
000000011111111100000000111111101111010100000000111111110000000000000001
000000000000000000000000000000011111101000000010000000100000001000000011
000000001111111100000000000000010000100000000001000000100000000100000000
000000010000000000000000000000000000000111111111000000001111111111111111
000000000000000000000000111111110000000111111111000000000000000011111111
111111111111111000000001111111011111111000000001000000010000000100000011
000000100000000000000001000000100000001111111111000000101111111111111111
000000101111110100000000111111001101111000000011111111101111110100000100
000000010000000011111111000000000000000011111110000000001111111111111110
000000010000000000000000111111110000010111111111000000000000000011111111
000000010000000000000000111111110000011011111111000000001111111111111111
000000010000000011111111111111110000001011111110111111111111111111111110
000000001111111100000000000000000000010000000000000000000000000000000000
000000010000000100000001000000100000001100000010000000100000001000000010
000000010000000100000000000000101111110100000010000000100000001000000011
000000010000000000000000000000000000001111111111000000000000000011111111
000000000000000000000000000000000000001100000001000000010000000100000001
000000000000000000000001000000000000100000000001000000000000000100000001
000000000000000000000000000000000000000100000000000000000000000000000000
000000000000000100000000000000010000001100000001000000010000000100000001
000000000000000000000000000000000000001000000001000000000000000000000000
000000000000000000000000000000001111110000000000000000000000000000000001
000000000000000000000000000000000000001000000001000000000000000100000001
000000001111111100000000000000001111011111111111000000001111111111111111
000000000000000000000000000000000000010100000001000000000000000000000001
000000000000000000000000000000000000010100000001000000000000000100000001
000000000000000100000001000000010000111100000011000000010000001100000010
111111111111111111111111111111110000001011111111111111111111111111111111
000000000000000000000000000000000000001100000001000000000000000100000001
000000000000000000000000111111110000000000000000111111110000000100000000
000000000000000000000000000000001111110100000000000000000000000000000000
000000001111111111111111111111111111010111111110111111111111111011111111
000000010000000111111111000000000000000000000000000000001111111111111111
000000000000000000000000000000000000001100000000000000000000000000000000
000000000000000000000000000000010000000100000001000000010000000100000001
000000000000000000000000000000000000101000000001000000000000000100000000
000000000000000000000000000000000000000000000000000000000000000000000000
000000000000000000000001000000000000001100000000000000000000000000000000
000000000000000000000000000000001111111100000000000000000000000000000001
000000000000000000000000000000000000001000000000000000000000000000000000
000000010000001000000010000000010001010000000011000000010000001100000011
000000000000000000000000000000010000011000000001000000010000000100000001
000000000000000000000000000000001111101100000000000000000000000000000000
000000000000000000000000000000001111111000000000000000010000000000000000
000000000000000000000000000000001111110100000000000000000000000000000000
000000000000000000000000000000000000000100000001000000000000000100000001
000000000000000000000000000000001111101100000000000000000000000000000001
000000001111111100000000111111111111100011111111000000001111111111111111
000000000000000100000001000000000000010100000001000000000000000100000001
000000000000000000000000000000000000000000000001000000010000000100000001
000000010000000100000001000000010000100000000001000000010000001000000001
000000000000000000000000000000000000001100000000000000000000000000000000
000000000000000000000000000000000000001100000000000000000000000000000000
000000000000000100000001000000010000010100000001000000010000001000000001
111111111111111011111110111111111111000011111110111111111111111011111110
000000000000000100000000000000000000011100000000000000010000000100000000
000000000000000000000000000000000000001100000000000000001111111100000000
000000000000000000000000000000000000010100000000000000000000000000000000
000000000000000000000000000000000000100000000000000000000000000000000000
000000000000000000000000000000000000010100000000000000000000000000000000
111111111111111111111111111111111111111111111111111111111111111111111111
000000000000000000000000000000000000000100000000000000010000000100000001
000000000000000000000000000000000000000100000001000000010000000100000001
000000000000000011111111000000000000001000000000000000000000000011111111
000000000000110011111110000011000001000111110001111010111110000111110001
000001000000010100000100000000111111101100000010000000110000001100000001
111110001110101111111100000001100001001100000011000001110001110100000100
111110101111110111111110111111000001101100000010111110011111110100000000
000000101111111000000010000001101111111100000000000001000000010011111111
111110110000001000000011111011111101110011111001111100011111011111110010
000000010000010011110110000010100010000111101110111110100000011111110100
000000111111111000000000000010101110011100000001000010110000100000000011
000000010000010000000101000000001111111000000100000000100000001100000100
000000011111111111111101000000110000011111111110000000001111111111111101
111111011111111011111100000000110001111011111110111110111111110111111001
000000000000001000000001000000001111001100000001000000100000001100000001
000000001111111111111100000000100010011111111111111110111111101111111010
111111011110111100000110111100111000100011110010111100011101110011101111
111111101111111011111111111111010001101011111111111110011111101111111101
111110111111110011111011000000000000001000000001000000100000010000000010
111100101110101000000101110111100000000100001100111101110001001011111111
000000010000001000000001000000011111011100000011000000010000001000000010
111110111111110111111111111110110001110100000000111101111111101011111101
000000100000011000000011000000101111010000000101000000100000010100000100
000000110000001100000001000010011111001000000001000001100000001100000000
000000110000010111110010000101111111010111100001000000100000101111110101
111110111111110111111110111110110001101100000001111110011111101011111110
111111110000000111111110000000001111011000000010000000010000001000000001
111111001111111111111100000000000000011111111111111110110000011000000001
111111110000000100000010000000000001011100000011111110011111110000000000
111111100000000000000001111111100000111100000001111111001111101111111111
111111011111111100000000111111010001111000000000111110111111110011111111
111111011111111100000000111111100001101100000001111111001111111100000001
111111011111111011111110111111010001100111111111111110011111110011111110
111111011111111000000101000000011111001100000001111111011111110011111110
111111011111111111111101000000000000001000000001000000010000001000000001
111110101111101111111111111101111111101100000001111110111111101011111100
111110011111110011111110111110100001110100000000111101111111101111111111
111110001111111111111011111110010001010100000100111101100000000111111111
000000000000000100000001111111111111001100000010000000010000001000000010
111111110000000000000000000000011111000100000000000000110000001000000001
111110010000001011111100111110100010101000001001111101000000001000000001
111111011111111011111101000000011111111100000011000001110000011000000100
111110010001000011111000110011100001010000010100111001011111101100000100
000000100000000111111111000000101111001000000001000001000000001100000001
000000010000001100000001111111111110100100000001000000010000000100000001
000000110000010000000010000000101111000000000001000000110000001100000001
000000010000000100000000000000001110111000000001000000100000001000000001
000000100000001000000001000000110000010100000101000000110000010100000011
111110101111111000000001111110100001101000000011111110001111110000000000
111110001111110111111111111110010010010100000000111101001111100011111110
000000010000001000000001111111111111010100000011000000010000001100000011
000000000000000000000001000000001111101100000001000000000000000000000001
000000000000000000000000000000001111111000000000000000001111111111111111
000000001111111000000000000000001111011111111111000000000000000000000000
000000000000000000000000000000001111111000000000000000000000000000000001
000000000000000000000000000000001111111100000000000000000000000000000000
000000010000000000000001000000001111110000000000000000000000000011111111
000000010000000000000000000000011111110011111111000000010000000000000000
111111110000000000000000000000000000100000000000000000000000001000000001
000000000000000000000000000000001111111100000000000000000000000000000000
000000000000000000000000000000001111110100000000000000000000000000000000
000000010000000000000001000000001110111100000000000000011111111100000000
111111111111111111111111111111111111110111111111111111111111111111111111
000000000000000000000000000000001111001100000000000000000000000000000000
000000010000000000000000000000000000000100000000000000001111111111111111
000000000000000000000000000000010000011100000001000000010000000100000001
111111110000000100000000000000010001100100000011000000000000001100000010
111111111111111111111111111111101111110100000000111111110000000100000010
111111110000000000000000111111111111111100000000111111110000000000000000
000000000000000000000000000000001111111100000000000000000000000000000001
000000010000000000000000000000010000001100000000000000010000000000000000
000000000000000000000000000000000000000000000000000000000000000000000000
000000011111111100000000000000011111110011111111000000010000000100000000
000000000000000000000000000000010000010100000001000000000000000100000001
111111110000000011111111000000000000010100000000111111110000000000000000
000000010000000000000010000000011111010100000000000000100000000000000001
000000010000000100000001000000001111111000000001000000010000000000000001
000000000000000100000000000000010000111100000010000000010000000100000001
000000000000000100000000000000010001001000000010000000010000001000000010
000000000000000100000000000000010001001100000010000000000000001000000001
000000000000000000000000000000000000000000000000000000000000000000000000
000000000000000100000000000000010000100100000001000000000000000100000000
111111110000000100000000000000010001001000000010000000000000001000000001
000000010000000000000001000000001111101000000000000000000000000000000000
000000000000000000000000000000010000001100000001000000010000000100000001
111111110000000000000000000000000000001000000000000000000000000000000000
111111110000000011111111000000001111111100000000000000000000000011111111
000000000000000000000000000000001111111011111111000000000000000011111111
000000010000000000000001000000001111000100000000000000010000000000000001
111111110000000100000000000000010001101000000010000000000000001000000001
111111110000000100000001111111010000000100000010111111100000000000000010
000000000000000011111111000000000000000011111111000000000000000011111111
000000000000000011111111000000001111111111111111000000001111111111111111
000000000000000000000000000000000000000011111111000000000000000011111111
000000000000000011111111000000000000000011111111000000001111111111111111
111111110000000000000000000000000000010000000000000000000000000000000000
000000000000000000000000000000010000010000000001000000000000000100000001
000000000000000000000000000000010000000000000001000000010000000000000001
000000000000000011111111000000000000000111111111000000000000000011111111
111111110000000000000000000000010000011000000000111111101111111111111111
000000000000000011111111111111111111101111111111111111111111111111111111
111111101111111011111111111111110000000100000000000000000000000100000000
000000000000000000000000000000000000011100000001000000000000000100000001
000000001111111100000000111111111111100111111111000000001111111111111111
111111101111111111111110111111100000001111111110111111100000000011111110
000000000000000011111111000000010000001111111111000000010000001000000000
000000001111111111111111111111111111001011111110111111111111111111111110
000000000000000011111111000000001111110000000000111111111111111111111111
000000000000000011111111111111111111100111111111111111111111111111111111
000000000000000000000000111111111111101111111111111111111111111111111110
111111111111111111111111111111111111110111111111111111111111111111111111
000000010000000100000001000000010000001100000001000000010000000000000000
111111100000000011111111111111111111110111111111111111101111111111111110
000000000000000000000000000000000000001000000000000000000000000000000000
111111110000000000000000000000000000011000000001000000000000000100000001
111111111111111111111111111111100000010000000000000000000000001000000000
111111110000000000000000000000001111110100000000000000000000000000000000
000000000000000000000000000000000000011100000001000000000000000000000001
000000000000000000000000111111111111101011111111111111111111111111111111
000000001111111111111111111111111111001011111110111111111111111011111110
111111110000000000000000000000000000001111111110000000000000000000000000
000000000000000000000000000000000000010000000001000000000000000000000001
111111110000000000000000000000000000000100000000000000000000000000000000
111111111111111111111111111111111111101111111111000000000000000011111111
000000000000000000000000000000000000001100000000000000000000000000000000
000000000000000011111111000000001111110000000000111111111111111100000000
000000000000000000000000000000000000010000000001000000000000000000000000
111111110000000000000000000000000000011000000001000000000000000100000001
000000000000000000000000000000010000010000000001000000000000000000000000
000000000000000011111111000000001111110111111111000000001111111111111111
111111110000000000000000000000000000001100000001000000000000000100000001
111111111111111111111111111111111111101111111111111111111111111111111111
000000000000000100000000000000010000100000000001000000000000000100000001
111111110000000100000001000000000000110100000010000000000000001000000010
000000000000000000000000000000001111111100000000000000000000000000000000
111111111111111111111111111111111111110011111111111111111111111111111111
111111110000000000000001000000000000000000000001000000000000000100000001
111111111111111111111111111111111111100111111111111111111111111111111111
111111100000000011111111111111000000000000000000111111001111111111111111
111111111111111111111111111111111111110011111111111111111111111111111111
111111111111111111111111111111111111100111111111111111111111111111111111
111111111111111111111111111111111111101011111111111111111111111111111111
111111111111111111111111111111111111110011111111111111111111111111111111
000000000000000000000000000000000000001100000000000000000000000000000000
000000000000000100000001000000010000101100000010000000000000000100000001
000000010000000100000001000000010000110000000001000000010000000100000001
111111110000000011111111000000001111111000000000000000000000000011111111
111111111111111111111110111111101111110111111110111111101111111111111111
111111110000000000000001000000000000011100000010000000000000001000000011
000000000000000100000000000000000000000000000010000000000000000100000010
000000000000000000000000000000001111111000000000000000000000000000000000
000000000000000000000000000000001111111100000000000000000000000000000000
111111111111111100000000111111111111111000000001111111100000000000000001
111111111111111111111111111111101111110011111111111111101111111111111111
000000001111111111111111111111111111011111111110111111101111111011111110
000000000000000000000001000000000000010100000010000000000000000100000010
000000000000000000000000000000000000001000000001000000010000000100000001
000000000000000000000001000000000000010000000010000000010000001000000010
000000000000000000000001000000000000010100000001000000000000000100000010
111111110000000011111111000000001111101100000000000000001111111111111111
111111111111111100000000111111111111111000000000000000000000000000000001
000000000000000000000000000000001111110100000000111111110000000011111111
000000001111111111111111111111111111110011111110111111111111111011111110
000000010000000100000010000000100000100000000101000000010000001000000011
000000000000000000000000000000000000001000000001000000000000000000000001
000000000000000000000000000000001111110100000000000000000000000011111111
000000000000000100000001000000000000011100000010000000010000000100000010
000000000000000000000000000000000000000000000000000000000000000000000000
111111100000000011111111111111010000000011111111111111010000000011111111
000000000000000000000000000000001111110100000000000000000000000011111111
000000000000000000000000000000000000000000000000000000000000000000000000
111111110000000000000001000000000000010100000010000000000000001000000010
000000000000000000000000000000001111110000000000000000001111111111111111
000000000000000000000000000000001111111000000000000000000000000011111111
000000000000000000000000000000000000000000000000000000000000000000000000
000000000000000000000000000000000000000000000000000000000000000000000000
000000000000000000000000000000001111111000000000000000000000000011111111
111111111111111111111111111111110000000011111111111111111111111100000000
000000000000000011111111000000001111110111111111111111111111111111111111
000000010000000100000001000000010000001100000010000000010000001000000010
000000000000000000000000000000001111111000000000000000000000000011111111
000000000000000000000000000000000000000000000000000000000000000000000000
000000000000000000000001000000000000010000000001000000000000000100000001
000000000000000000000001000000000000010000000001000000000000000100000001
111111111111111100000000111111111111110100000000000000000000000000000000
000000001111111111111111111111111111110011111110111111111111111111111110
111111110000000000000010000000010000001100000100000000010000001000000011
000000000000000000000001000000000000010000000001000000000000000100000001
000000000000000100000001000000000000100000000010000000010000001000000011
000000000000000100000001000000000000101000000011000000010000001000000011
000000000000000100000001000000000000011100000010000000010000000100000010
000000000000000000000000000000001111111100000000000000000000000000000000
000000000000000000000000000000001111111000000000000000000000000011111111
000000000000000011111111000000001111110011111111111111111111111111111111
000000000000000000000001000000000000011000000010000000000000000100000010
000000000000000000000000000000000000001000000000000000000000000000000000
000000000000000000000000000000001111101100000000000000001111111111111111
111111111111111111111111000000000000001000000000000000000000000000000000
000000000000000000000000000000000000100000000001000000000000000100000001
000000000000000000000000000000001111111100000000000000000000000000000000
000000010000000100000000000000010000001000000001000000000000000000000001
000000000000000000000000000000001111111100000000000000000000000000000000
000000000000000000000000000000001111110100000000000000000000000000000000
000000000000000000000000000000001111101100000000111111111111111111111111
000000000000000000000000000000000000001000000000000000000000000000000000
000000000000000000000000000000000000010100000001000000000000000100000001
000000000000000011111111000000001111110011111111111111111111111111111111
000000000000000000000000000000010000101000000001000000000000000100000001
000000010000000100000000000000000000000000000000000000010000000000000000
000000000000000100000000000000010000101000000001000000010000000100000001
000000000000000000000000000000001111110011111111000000001111111111111111
000000010000000111111111000000000000010011111111111111110000000000000000
111111110000000011111111000000001111111100000000000000000000000011111111
000000000000000100000000000000010000110000000001000000000000000100000001
000000000000000000000000000000001111110000000000000000000000000011111111
000000000000000000000000000000001111111100000000000000000000000000000000
000000000000000000000000000000000000000100000000000000000000000000000000
000000000000000100000001000000010000101100000001000000010000000100000001
000000000000000000000000000000000000000000000000000000000000000000000000
000000000000000000000000000000000000010000000000000000000000000000000000
000000000000000000000000000000000000010100000000000000000000000100000001
000000000000000000000000000000000000010100000001000000000000000000000001
000000000000000000000000000000000000011000000001000000000000000000000001
000000000000000000000000000000000000010100000000000000000000000100000001
000000000000000000000000000000010000101100000001000000010000000100000001
000000000000000000000000000000001111111000000000000000000000000000000000
000000000000000000000000000000001111110100000000000000000000000000000000
000000000000000000000000000000001111111100000000000000000000000000000000
000000000000000100000000000000010000110000000001000000010000000100000001
000000000000000000000000000000001111110111111111000000000000000011111111
000000000000000000000000000000001111111000000000000000000000000011111111
000000000000000011111111000000001111101011111111000000001111111111111111
000000000000000000000000000000001111110000000000000000000000000000000000
000000000000000000000000000000001111110011111111000000000000000011111111
000000000000000011111111000000000000010000000000000000000000000000000000
000000001111111111111111000000001111101011111111111111111111111111111111
000000001111111111111111111111111111101011111111111111111111111111111111
000000001111111111111111000000001111100111111111000000001111111111111111
111111111111111111111111111111111111100111111111111111111111111111111111
000000000000000011111111000000001111111111111111000000001111111111111111
000000000000000000000000000000000000100000000001000000010000000100000001
000000010000000100000001000000010001001000000001000000010000001000000010
000000000000000011111111000000001111110011111111111111111111111111111111
111111011111111011111101111111011111101111111111111111011111111100000010
000000010000001000000001000000100001010100000011000000010000001000000010
000000000000001000000001111111100000000100000001111111110000000000000000
000000000000000000000000000000001111111000000000000000000000000000000000
000000000000000000000000000000000000001100000001111111110000000000000000
111111111111111111111111111111110000010100000000000000000000000100000011
111111101111111100000000111111101111101100000000111111101111111100000001
111111110000000000000000111111110000010100000000111111110000000000000000
000000100000001100000011000000110001111000000100000000110000010000000100
111111110000000011111111000000000000000000000000000000000000000000000000
000000000000000100000001000000010000111000000010000000010000001000000001
000000010000001000000010000000100001011100000011000000100000001100000011
000000010000000100000001000000010000101000000001000000010000000100000000
111111101111111100000010111111110000001000000010000000010000000000000100
000000000000000000000000000000010000011100000000000000000000000000000001
000000000000000100000001000000000001000000000001000000000000000100000001
000000110000000011111101000000001111110011111111111111100000000000000000
000000010000000100000001000000100001001000000010000000010000001000000010
000000000000000000000000000000000000001100000000000000000000000000000000
000000000000000000000000000000010000101000000010000000000000000100000010
111111110000000011111111111111110000010000000001111111110000000100000000
111111010000000000000000111111100000000000000001111111011111111100000000
000000000000000000000000000000000000010100000000000000000000000000000000
000000000000000000000000000000000000100000000001000000010000000100000001
111111110000000000000000000000000000010100000001111111110000000000000000
111111111111111100000000111111111111110100000000111111110000000000000000
000000000000000000000000000000000000011000000000000000000000000000000000
000000000000000000000000000000000000001100000000000000000000000000000000
000000000000000000000000000000010000100100000001000000010000000100000001
000000000000000000000000000000000000001000000000000000000000000000000000
111111110000000000000000000000000000011100000001000000000000000100000001
000000000000000100000001000000000000011100000001000000000000000100000001
000000000000000011111111000000000000000000000000000000000000000000000000
000000000000000100000000000000000000011000000000000000000000000100000001
000000000000000000000000000000010000111000000001000000010000000100000001
000000010000001000000010000000100001010000000011000000100000001100000011
000000000000000100000001000000010000101100000010000000010000001000000010
111111111111111100000000000000000000001100000000000000000000000000000000
111111101111111111111111111111110000001100000000111111110000000000000000
111111111111110111111110000000011111110100000000000000110000001000000001
000000000000000100000001000000010000111100000010000000010000001000000010
000000100000001100000010000000110001110000000100000000100000010000000100
000000010000001000000001000000100001000100000011000000010000001100000011
000000010000001000000010000000100001011100000011000000100000001100000011
000000000000000000000000000000000000011000000001000000000000000100000001
000000000000000000000000000000010000100000000001000000010000000100000001
000000010000000100000001000000010000100100000001000000010000000100000001
000000100000001100000010000000110001100000000011000000100000001100000100
000000000000000011111111000000001111111000000000000000000000000000000000
000000000000000000000001000000000000011100000001000000010000000100000001
000000000000000000000000000000000000001100000001000000000000000100000000
000000000000000000000000000000000000000000000000000000000000000000000000
000000000000000000000000000000000000001000000001000000000000000000000001
000000000000000000000000111111111111111000000000111111110000000000000000
000000000000000000000000000000001111111000000000000000000000000000000000
000000001111111111111111000000001111110111111111000000001111111111111111
000000000000000100000001000000010000011000000001000000010000000100000001
000000000000000000000000000000000000101000000001000000000000000100000001
000000000000000100000010000000010001010100000011000000100000001100000100
000000000000000000000000000000001111111000000000000000000000000000000000
000000000000000000000000000000000000010000000001000000000000000100000001
000000001111111100000000000000001111111111111111000000001111111111111111
000000000000000000000000000000000000000000000000000000000000000000000000
111111111111111011111110111111101110110011111101111111101111110111111101
000000000000000000000000111111111111110100000000111111110000000011111111
000000000000000000000000000000001111110100000000000000000000000000000000
000000000000000000000000000000000000000100000000000000000000000000000000
000000000000000000000000000000000000001000000000000000000000000100000001
000000000000000000000000000000000000001100000001000000000000000100000001
000000000000000000000000000000000000001100000001111111110000000000000000
000000000000000000000000000000000000000100000000000000000000000000000000
000000001111111111111111000000001111100011111111111111111111111111111111
000000000000000100000001000000000000111000000010000000010000001000000010
000000000000000000000000000000001111111100000000000000000000000000000000
000000000000000000000000000000000000000000000000000000000000000000000000
000000000000000000000000000000001111111100000000000000000000000000000000
000000001111111100000000000000001111110111111111000000000000000011111111
000000000000000000000000000000000000001000000000000000000000000000000000
000000000000000000000000000000000000000000000000000000000000000000000000
111111111111111111111111111111111111011011111110111111111111111111111111
000000000000000000000001000000010000010000000010000000010000000100000001
000000000000000000000000000000001111111100000000000000000000000000000000
111111111111111111111111111111111111000111111110111111111111111011111110
000000000000000000000000000000000000000000000000000000000000000000000000
000000000000000000000000000000000000000100000000000000000000000000000000
111111111111111100000000111111111111011111111111000000000000000000000000
111111111111111111111110111111111111010111111110111111111111111111111110
000000000000000000000000111111110000000011111111000000000000000100000000
000000000000000000000000000000001111111100000000000000000000000000000000
000000000000000000000000000000000000001000000000000000010000000100000000
000000000000000000000000000000010000011100000001000000010000000100000001
000000000000000000000000000000000000000100000000000000000000000000000000
111111111111111111111111111111111111011111111111111111111111111111111111
000000000000000000000000000000000000000000000000000000000000000000000000
111111110000000000000000000000000000001000000000000000000000000000000000
000000000000000000000000000000001111111100000000000000000000000000000000
000000100000000111111100000000011111010111111100000000011111111011111101
000000100000001000000011000000011111100000000011000000000000000100000010
111111011111110100000001111110101100101011111011000000101111101111111011
000000001111110111111101000000010000101011111110000000100000000011111111
000000101111111100000001000000001111010111111110000000001111111111111111
111110111111100011111011111110001011111011110010000000011111100011111000
111111011111111111111101111111101110110011111010000000011111111011111011
000000010000000000000010000000001111110000000001000000011111111100000001
000000010000000100000010000000001111011100000001000000000000000000000001
000000110000000100000000000000010000001000000000000000001111111111111111
000001000000000111111111000000101111110011111111000000101111111111111111
000000010000001000000011000000001111100000000011000000000000000100000010
000000101111111111111110000000100000011111111110000000011111111111111110
111111011111010111111111111110011001111011110011000000001111010111111010
000000001111110111111101000000010000100111111101000000011111111111111110
111111111111111100000001111111110000010100000001000000100000001000000100
000000001111110100000001111111001111100111111111000001000000000100000011
000000000000000100000011000000001111100000000010000000000000000100000011
000000001111110111111100000000010000101111111101000000100000000011111110
000000100000001000000011000000011110110000000010000000000000000000000001
000000110000001000000011000000011111100000000001000000001111111100000001
111111000000000000000000111111001101000111111000000000001111101111111001
111111111111110111111101000000010000110011111101000000011111111111111110
000000000000000000000010000000001111100000000010000000010000000100000011
000000100000000100000001000000011111111000000000000000101111111100000000
000000001111111011111101000000011111110111111101000000100000000011111111
000000001111111011111110000000010000110011111101000000010000000011111111
111111111111110111111101000000000000100111111110000000010000000011111111
111111111111111011111110000000000000011011111110000000010000000000000000
000000001111111011111101000000010000011011111101000000011111111111111110
000000001111110111111111000000001110101111111011000000101111111011111110
111111111111111100000000000000000000001000000000000000010000000000000010
000000110000001000000010000000010000001100000011000000010000000100000010
111111111111110111111100000000010000110011111100000000011111111111111110
111111101111111000000000111111100000010000000000000000100000001000000100
000000000000000100000011000000001111011000000010000000000000000000000010
000000010000000100000011000000001111100100000011000000000000000100000010
111111111111111111111111111111110000000100000000000000100000001000000010
111111110000000000000001000000010000011000000010000000010000000100000011
000001010000010100000010000001011111110000001000000001000000010000000011
000000000000000100000011000000001110111000000010000000000000000000000010
000000010000001000000100000000001111011000000011000000000000000000000011
000000010000001000000100000000011111000100000100000000000000000100000010
000000010000000100000011000000001111000100000011000000000000000000000010
000000000000000000000010000000001111001100000010000000010000000100000011
111111111111110111111100000000000000011011111101000000011111111111111110
111111111111110011111011000000010000101011111011000000011111111111111100
000000010000000100000011000000001111010100000011000000000000000000000011
000000000000000111111111000000010000001100000001000000010000000100000000
000000000000000000000000000000001111111100000000000000000000000000000000
000000010000000100000001000000000000001000000000000000010000000000000001
000000000000000000000000000000001111110100000000000000001111111100000000
000000000000000000000000000000000000000100000000000000000000000000000000
000000010000000100000001000000011111111111111110000000000000000011111111
000000010000000100000000000000010000001100000001000000010000000100000001
000000000000000000000000000000000000001000000000000000000000000000000000
000000000000000000000000000000000000000000000000000000000000000000000000
000000000000000000000000000000001111111011111111000000000000000011111111
000000000000000000000000000000000000000000000000000000001111111111111111
000000000000000000000000000000010000000100000000000000010000000100000000
000000000000000000000000000000001111111000000000000000000000000000000000
000000010000000100000000000000001111110111111111000000010000000000000000
111111111111111100000000111111111111110111111111111111111111111111111111
000000000000000100000001000000010000100000000010000000010000001000000001
000000010000000100000001000000000000000011111111000000000000000000000001
000000010000000100000000000000010000001100000000000000010000000100000001
000000000000000000000000111111111111110111111111000000001111111111111111
000000010000000100000000000000010000001000000000000000010000000100000000
000000000000000000000000000000000000000000000000000000000000000000000000
000000010000000100000000000000010000001000000000000000010000000100000001
000000000000000000000000111111111111110100000000000000001111111100000000
000000010000000100000001000000010000011000000001000000010000000100000001
000000000000000100000000000000001111111000000000000000000000000000000000
000000000000000000000000000000000000000000000000000000000000000000000000
111111111111111111111111000000001111110100000000111111111111111111111111
111111110000000000000000111111111111111000000000111111110000000000000000
000000000000000000000000000000001111111100000000111111110000000000000000
000000000000000000000000000000001111111000000000000000000000000000000000
000000000000000000000000000000000000001000000000000000000000000000000000
000000000000000000000001000000000000010000000001000000000000000100000001
000000000000000000000000000000000000000000000000000000000000000000000000
111111110000000000000000111111111111110100000000111111111111111100000000
000000000000000000000000111111110000001100000001000000000000000100000001
000000000000000000000000000000010000000100000000000000010000000100000000
000000000000000000000000000000000000000100000000000000010000000000000000
000000000000000100000001000000000000001000000001000000000000000100000010
000000000000000100000001000000000000010100000001000000000000000100000000
000000000000000100000000000000000000000000000000000000000000000000000000
000000010000000100000000000000010000010000000000000000010000000100000001
000000000000000000000000000000000000000000000000000000010000000000000000
000000010000000000000000000000010000000100000000000000010000000000000000
000000010000000100000000000000010000001000000000000000010000000100000000
000000010000000100000001000000010000011000000001000000010000000100000001
000000000000000000000000111111111111111100000000000000000000000000000000
000000000000000000000000111111111111111000000000111111110000000000000000
000000010000000000000000000000010000001000000000000000010000000100000000
111111110000000011111111111111110000010000000000111111110000000000000000
000000000000000000000000000000000000001000000000000000000000000000000000
000000000000000100000001000000000000000100000000000000000000000000000000
000000000000000000000000000000001111111000000000000000000000000000000000
000000000000000000000000000000000000001000000000000000000000000000000000
000000000000000000000000000000001111111000000000111111110000000000000000
111111110000000000000000111111110000000000000000111111111111111100000000
000000000000000100000000000000000000010100000001000000000000000100000001
000000000000000000000000000000000000001100000001000000000000000000000001
000000000000000000000000000000000000000100000000000000000000000000000000
000000000000000000000000000000000000001000000000000000000000000011111111
000000000000000100000001000000010000100100000001000000010000000100000001
000000000000000000000000000000000000000100000000000000000000000000000000
000000000000000100000000000000000000010000000000000000000000000000000000
000000000000000000000000000000001111111000000000000000000000000000000000
000000000000000000000000000000000000000000000000000000000000000000000000
000000010000000100000000000000010000000000000000000000000000000011111111
000000000000000000000000000000000000010000000001000000000000000100000001
000000000000000000000000000000001111111000000000000000000000000000000000
000000000000000000000000000000000000010000000001000000000000000000000001
000000000000000000000000000000000000010100000001000000000000000100000000
111111110000000000000000111111110000000100000000111111110000000000000000
000000000000000000000000000000001111110100000000000000000000000000000000
000000000000000000000001000000000000001100000001000000000000000100000001
000000000000000011111111111111111111100111111111111111111111111111111111
000000000000000000000000000000001111111000000000000000000000000000000000
000000000000000000000000000000001111111000000000000000000000000000000000
000000000000000000000000000000001111101100000000000000000000000011111111
000000000000000000000000000000001111110000000000000000000000000011111111
000000000000000000000000000000001111111000000000000000000000000000000000
000000000000000000000000000000000000000100000000000000000000000000000000
000000000000000000000000000000001111111100000000000000000000000000000000
000000000000000000000000000000000000010000000000000000000000000000000000
000000000000000000000000000000001111110011111111000000000000000011111111
111111111111111111111111111111111111011111111111111111111111111111111111
000000000000000100000001000000010000011100000001000000010000000100000001
000000000000000100000001000000010000100000000001000000010000000100000001
000000001111111111111111111111111111110111111111111111111111111111111111
000000000000000000000000000000000000010000000001000000000000000100000001
000000000000000011111111000000010000001011111111000000010000000100000000
000000000000000100000001000000010000101000000001000000010000000100000001
000000000000000100000001000000010000100000000001000000000000000100000001
000000000000000100000001000000000000100000000001000000000000000100000001
000000000000000100000001000000010000101000000001000000010000000100000001
000000000000000100000001000000000000011100000001000000000000000100000001
000000000000000000000000000000001111110100000000000000000000000000000000
000000000000000000000000000000001111110111111111000000000000000011111111
000000000000000100000001000000010000100100000001000000010000000100000001
000000000000000100000000000000010000100100000000111111110000000011111111
000000000000000011111111000000001111110111111111111111111111111111111111
000000001111111111111111000000001111101011111110000000000000000000000001
000000000000000000000000000000000000011000000001000000000000000100000001
000000000000000000000000000000000000010000000000000000000000000100000000
000000010000000100000000000000011111111100000000000000000000000000000000
000000000000000011111111000000000000001011111111000000000000000100000000
000000010000000000000000000000010000010000000000000000010000000100000001
111111111111111111111111000000001111110100000000000000001111111111111111
000000000000000000000000000000000000011000000001000000000000000100000000
000000000000000100000000000000000000100100000001000000000000000100000000
111111111111111111111111111111111111101111111111111111111111111111111111
000000000000000000000000000000000000101100000001000000000000000100000001
000000000000000011111111000000000000011000000000111111110000000011111111
000000000000000000000000000000000000101100000010000000000000000100000010
000000000000000000000000000000000000000000000000000000000000000000000001
000000100000000000000000000000001111100011111111111111111111111100000001
111111110000000000000000111111111111111000000000111111110000000000000000
000000000000000000000000000000000000100000000010000000000000000100000001
000000000000000000000000000000000000000100000000000000000000000000000000
000000010000000100000001000000010000010100000001000000000000000000000000
000000000000000111111111000000000000011111111110000000000000000111111111
000000000000000000000000000000000000100000000010000000000000000100000010
000000000000000000000000000000000000000100000000000000000000000000000000
000000010000000100000001000000010000001100000000000000010000000100000001
000000000000000000000001000000000000011100000001000000000000000100000001
000000000000000000000001000000010000100100000010000000000000000100000001
000000000000000000000000000000000000011100000001000000000000000100000001
000000000000000000000000000000000000011000000001000000000000000100000001
000000000000000000000000000000000000100100000001000000000000000100000001
000000000000000000000000000000000000010100000000000000000000000100000000
000000000000000000000000000000000000000100000000000000000000000000000000
000000000000000000000000000000000000001100000001000000000000000000000000
000000000000000000000000000000000000100000000001000000000000000100000010
000000000000000000000000000000001111110000000000000000000000000000000000
111111111111111111111111111111111111111011111111111111110000000011111111
000000000000000000000000000000001111111000000000000000001111111111111111
000000000000000000000000000000001111110100000000000000010000000000000000
000000010000000000000000000000000000001100000000000000010000000000000000
000000010000000000000000000000001111100100000000000000001111111000000000
000000000000000000000000000000001111111011111111000000000000000011111111
111111111111111111111111111111111111101111111111111111111111111111111111
000000000000000000000000000000001111110100000000000000001111111111111111
111111111111111111111111111111111111110011111111111111111111111111111111
000000000000000000000000000000000000001000000000000000000000000000000000
000000000000000000000000000000000000011000000001000000000000000100000001
000000000000000100000001000000010000110100000010000000010000001000000010
111111111111111111111111111111111111110111111111111111111111111111111111
000000000000000000000000000000000000010000000001000000000000000100000000
000000000000000000000000000000001111110000000000000000000000000000000000
000000000000000011111111000000000000000100000000111111111111111111111111
000000000000000000000000000000000000001000000000000000000000000000000000
000000000000000100000001000000010000110100000010000000010000001000000010
111111110000000011111111000000000000000000000000000000000000000011111111
000000000000000000000000111111111111110111111111000000001111111100000000
111111110000000100000001000000010001000000000011000000010000001100000011
000000000000000000000000000000001111110100000000000000000000000000000000
000000000000000100000001000000010000100100000001000000010000000100000001
111111111111111111111111000000001111111100000000111111111111111100000000
000000010000000100000000000000010000000100000001000000000000000100000001
111111110000000000000000000000000000010000000000000000000000000000000000
111111111111111100000000111111110000001011111111111111110000000000000000
000000000000000000000000000000000000010000000000000000000000000000000000
111111111111111100000000111111111111101100000000111111110000000000000000
111111110000000011111111000000001111111100000000111111110000000011111111
000000000000000000000000000000001111111100000000000000000000000000000000
000000000000000000000000000000000000001100000000000000000000000000000000
111111110000000011111111000000001111100111111111111111111111111111111111
000000000000001000000001000000100001000100000011000000100000001100000011
000000000000000000000001000000000000001100000001000000000000000100000001
000000000000000000000000000000000000001000000000000000000000000000000000
000000000000000000000000000000001111101000000000000000000000000000000000
111111111111111111111111111111111111010011111110111111101111111011111110
000000000000000000000000000000001111110000000000000000000000000000000000
000000000000000000000000000000000000011000000000000000000000000000000000
000000000000000000000000000000000000010100000000000000000000000000000000
000000000000000000000000000000000000001100000000000000000000000000000000
000000000000000000000000000000000000010000000000000000000000000000000000
111111110000000000000000000000000000001000000001000000000000000100000001
111111110000000000000000000000001111111100000000000000000000000000000000
000000000000000000000000000000000000001000000000000000000000000000000000
000000000000000000000000000000000000001000000000000000000000000000000000
111111111111111011111110111111101110101011111101111111101111110111111101
000000000000000000000000000000001111111100000000000000000000000000000000
000000010000000100000001000000010000011000000001000000010000000100000001
111111111111111011111111111111111110110111111101111111111111110111111110
111111110000000000000000000000000000011100000001000000000000000100000001
000000000000000111111111000000000000000111111111000000000000000111111111
000000000000000000000000000000000000001000000001000000000000000100000001
000000000000000000000000000000001111110100000000000000000000000000000000
000000000000000100000000000000010000000100000001000000000000000100000001
000000000000000100000000000000000000000000000000000000000000000000000000
000000000000000000000000000000001111111100000000000000000000000000000000
111111110000000000000000000000001111111111111111000000000000000000000000
111111111111111111111111111111110000001000000000000000000000000000000000
000000000000000100000000000000000000000100000000000000000000000000000000
000000100000001100000001000000100000011000000001000000000000001000000000
000000000000000000000000000000000000001000000000111111111111111111111111
111111011111110011111101111111001110000111111100000000000000000000000000
000000000000000000000000000000000000000000000001000000000000000100000001
111111111111111111111111111111111111101100000000111111110000000000000000
111111101111110000000000111111001110001011111111000000011111111100000011
000000001111111100000000000000001111010111111111000000011111111100000000
000000001111111100000000111111111111101011111111000000001111111111111111
000000000000000000000000000000000000000011111111000000001111111111111111
111111110000000000000000000000000000001000000001000000000000000100000001
111111110000000000000000000000000000101000000010000000000000001000000010
000000000000000000000000111111111111111111111111111111111111111111111111
111111110000000000000000000000010000101000000010000000000000001000000011
111111101111110111111111111111001111010011111110111111110000000000000001
000000000000000100000000000000010000011000000001000000010000001000000010
000000100000000100000001000000011111101011111111000000011111111111111111
111111111111110011111111111111011110011111111111111111110000000000000010
000000000000000000000000000000000000001000000000000000000000000000000000
000000000000000000000000000000010000010000000001000000010000000100000010
000000000000000000000000111111110000000011111111000000001111111111111111
000000000000000100000000111111110000000100000001111111110000000000000000
111111110000000011111111000000001111101111111111000000000000000011111111
000000000000000000000000000000000000000100000001000000010000000100000001
000000010000000000000001000000000000000100000000000000010000000000000000
000000001111111111111111000000001111111100000000000000000000000000000000
111111111111111100000000000000001111111000000001000000000000000100000001
000000000000000100000000000000010000001100000001000000000000000100000001
000000010000000100000000000000010000001000000001000000010000000100000001
000000010000000000000001000000011111111000000000000000010000000000000000
000000000000000000000000000000010000010100000001000000010000001000000010
000000000000000011111111111111111111111011111111000000000000000000000000
000000010000000000000001000000001111110000000000000000000000000011111111
111111111111111100000000111111111111111100000001111111110000000000000001
000000000000000000000000000000001111111100000001000000000000000100000001
000000011111111100000000111111111111000011111110000000001111111011111111
000000000000000000000000000000000000000111111111111111111111111111111111
000000000000000000000000111111110000000011111111111111111111111111111111
000000001111111100000000111111111111010011111111000000001111111100000000
000000010000000100000001000000001111111000000000000000011111111111111111
000000000000000000000001111111111111110100000001111111110000000000000001
000000000000000000000000000000000000000111111111000000001111111111111111
000000000000000000000000111111110000000111111111111111111111111111111111
000000000000000000000000000000000000001000000000000000000000000011111111
000000000000000000000000111111111111111111111111111111111111111111111111
000000000000000000000000000000001111111111111111000000001111111100000000
000000000000000000000000000000001111110000000000000000000000000000000000
000000000000000000000000000000010000010000000010000000010000001000000010
000000000000000000000000111111110000000011111111111111111111111111111111
111111111111111111111111111111111111111100000000000000000000000000000000
000000000000000000000000000000000000001000000000000000000000000000000000
111111110000000011111111000000000000001000000000000000000000000000000000
000000000000000000000000000000011111111100000000000000000000000000000000
000000000000000100000001000000010000011000000010000000010000001000000010
111111101111111011111110111111101111100111111110111111111111111011111110
111111111111111111111111111111111111101111111110111111111111111111111111
111111110000000100000010000000010000110000000100000000010000001100000100
000000000000000000000000000000000000000000000000000000000000000000000000
000000000000000100000001000000010000010100000001000000000000000100000001
000000000000000011111111000000001111110011111111111111111111111111111111
111111110000000000000000000000000000000000000000000000000000000000000000
000000000000000000000000000000001111111000000000000000000000000000000000
111111111111111011111110111111101111101011111110111111101111111011111110
000000010000000100000000000000010000011000000001000000010000000100000001
111111111111111111111111111111111111111000000001111111110000000100000000
111111110000000100000001000000000000000100000010000000000000001000000010
111111110000000000000000000000001111111100000000000000000000000000000000
000000000000000000000000000000010000000100000000000000010000000000000000
111111111111111111111111111111111111110111111111111111111111111111111111
111111110000000100000001000000010000101000000011000000010000001100000011
111111111111111111111111111111111111111100000000000000000000000000000000
000000000000000000000000000000010000001000000000000000010000000000000000
111111111111111111111111111111111111101111111111111111111111111111111111
111111111111111011111111111111111111011111111110111111101111111011111110
000000001111111111111111000000001111100111111111000000001111111111111111
000000000000000100000001000000010000011100000001000000010000000100000001
000000010000000100000001000000010000011100000001000000010000000100000001
000000000000000100000000000000010000010100000001000000000000000100000000
000000000000000000000000000000010000001000000000000000000000000000000000
000000000000000000000000000000000000000000000001000000000000000100000000
111111110000000000000000000000000000001000000001000000000000000000000000
000000000000000000000000000000000000000000000000000000000000000000000000
000000000000000000000000000000010000001000000000000000000000000000000000
111111101111111011111110111111101111011111111110111111101111111011111110
111111110000000000000000000000001111111100000000000000000000000000000000
000000000000000000000000000000000000001100000001000000000000000100000001
111111111111111011111110111111101111000011111101111111101111110111111101
111111100000000000000000000000000000011100000010000000000000001000000010
000000000000000100000000111111110000000100000000000000000000000100000001
111111110000000000000000000000000000000000000000000000000000000000000000
111111111111111111111111111111110000000000000000111111110000000000000000
111111110000000000000000000000000000001000000000000000000000000000000000
111111110000000000000000111111110000000000000000000000000000000000000000
111111111111111111111111111111111111101111111111111111110000000000000000
000000000000000011111111000000001111111100000000000000000000000011111111
000000000000000011111111000000001111111000000000000000000000000011111111
111111110000000000000000000000000000000000000000000000000000000000000000
111111110000000000000000000000000000011000000001000000000000000000000000
000000000000000000000000000000000000100000000000000000000000000000000000
000000000000000000000000000000001111111100000000111111110000000011111111
000000000000000100000000000000000000011000000001000000000000000100000001
000000001111111100000000000000001111000011111111111111111111111111111111
111111110000000011111111000000000000001011111111111111111111111111111111
111111110000000000000000000000000000010000000001000000000000001000000001
000000001111111111111111000000001110010111111110111111111111111011111110
000000000000000000000000000000000000001000000000000000000000000000000000
000000001111111111111111111111111111011111111111111111111111111111111111
000000000000000000000000000000000000001000000000111111110000000000000000
111111111111111111111111111111110000000011111111111111111111111111111111
000000000000000000000000000000001111101000000000000000000000000000000000
111111110000000011111111000000001111111111111111111111111111111111111111
000000000000000000000000000000001111110100000000000000000000000000000000
111111111111111111111111111111111111100111111111000000001111111111111111
000000010000000011111111000000001111101011111111000000001111111111111111
111111110000000000000000000000000000000100000000000000000000000000000000
000000000000000000000000000000000000001100000001000000000000000100000001
111111110000000000000000000000000000011100000000000000000000000000000000
000000001111111111111111111111111110011111111110111111111111111011111110
000000000000000000000000000000001111111100000000111111110000000000000000
000000000000000000000000000000001111111100000000000000000000000000000000
111111111111111111111111111111110000000000000000000000000000000000000000
000000000000000100000001000000010001001000000010000000010000001000000010
000000000000000000000000000000000000001100000001000000000000000100000000
000000000000000000000000000000001111100000000000000000000000000000000000
000000000000000000000000000000010000000100000000000000000000000000000001
000000000000000000000000000000000000000100000001000000000000000100000001
000000000000000000000000000000001111111100000000000000000000000000000000
000000000000000000000000000000001111011000000000000000000000000000000000
000000000000000000000000000000001111100100000000000000000000000000000000
000000001111111100000000111111111111101011111111111111111111111111111111
000000000000000000000000000000000000001000000001000000000000000100000001
111111110000000100000001000000010001011100000011000000010000001100000011
000000000000000000000000000000000000001100000000000000000000000000000000
111111111111111111111111111111111111110111111111111111111111111111111111
000000000000001000000001000000100001100100000100000000010000010000000100
111111111111111111111111111111111110110111111110111111111111111011111111
000000000000000011111111111111110000000011111111000000000000000000000000
111111111111111111111111111111111111111011111111111111111111111111111111
111111111111111111111111000000000000001000000000111111110000000011111111
111111111111111111111111111111110000000011111111111111111111111111111111
111111110000000011111111000000000000001111111111111111111111111111111111
111111111111111111111111000000000000000100000000000000000000000000000000
000000000000000000000000000000000000010100000001000000000000000100000001
000000000000000000000000000000000000001000000001000000000000000100000001
111111111111111111111111000000000000001000000000000000000000000011111111
111111101111111011111110111111111111110100000000111111101111111100000000
111111111111111111111111111111111111101111111111111111111111111111111111
111111110000000000000000000000000000000000000001111111111111111100000000
111111110000000000000000000000001111111100000000111111110000000000000000
000000000000000000000000000000000000001000000000000000000000000000000000
111111101111111011111111111111111111110100000000111111101111111111111111
111111111111111100000000111111101111110111111111111111111111111111111111
000000000000000000000000000000000000000100000001000000000000000100000001
000000000000000000000000000000001111110000000000111111110000000000000000
000000000000000000000000000000001111111111111111000000000000000000000000
000000001111111111111111111111111111101111111110111111111111111111111111
000000000000000100000001000000010000100100000010000000000000001000000010
000000001111111111111111111111111111111011111111000000000000000000000000
000000001111111011111111000000001111110011111110000000000000000000000000
111111110000000000000000111111111111110111111111000000000000000000000000
111111110000000000000000000000000000001100000001000000000000000100000001
000000100000001000000001000000100000010000000000000000000000000011111110
000000000000000000000001000000000000010100000010000000000000000100000010
111111111111111111111111111111111111110100000000111111111111111111111111
111111110000000000000000000000000000000100000001000000000000000000000001
000000000000000000000000000000000000001100000000000000010000000100000001
111111101111111100000000111111011111110000000000111111101111111100000000
000000001111111111111111000000001111110111111111000000001111111111111111
000000000000000000000001000000000000011000000010000000000000000100000001
111111111111111111111111111111101111011111111110111111101111111011111110
000000001111111100000000111111111111111100000000111111110000000000000000
111111111111111111111111111111111111101011111111111111111111111111111111
111111111111111111111111111111111111101011111111111111111111111111111111
111111111111111111111111111111111111101111111111111111111111111111111111
000000000000000000000000000000001111111000000000000000000000000000000000
111111111111111100000000111111111111101000000000000000001111111100000000
111111110000000000000000111111110000000000000000000000000000000000000000
000000000000000011111111000000000000001011111111000000000000000000000000
000000001111111100000000000000001111110011111111000000000000000011111111
111111101111111111111111111111110000000100000000111111110000000011111111
000000000000000100000001000000000000011000000001000000000000000100000010
000000000000000100000001000000010000100000000010000000000000001000000010
111111111111111111111110111111111111111011111111111111111111111111111111
111111110000000000000000000000000000010100000001000000000000000100000001
000000011111111111111111000000100000001100000001000000100000001100000001
000000000000000100000001000000010000100100000010000000000000000100000010
000000000000000000000000000000000000010000000001000000000000000100000010
000000000000000000000001000000000000001100000001000000000000000100000001
000000000000000100000001000000000000011100000010000000000000000100000010
000000000000000100000001000000010000100100000010000000000000001000000010
000000000000000000000000000000001111111100000000000000000000000000000000
000000000000000000000000000000001111111011111111000000000000000000000000
000000000000000100000001000000010000100000000010000000000000001000000010
