111100001111010011111111111100100000011000001110000000010000110100000111
111111111111111111111110000000000000111100000001111111011111110111111101
000001100000111000000101000000100001010100000101111100101110001111111000
000000010000000000000010000000101110101000000001000001010000001100000011
111111110000010011111110111111100000010100000100111110011111110011111101
111101011111101111110100111110101111101111111001111101101111110111111011
111110010000010100000011111100001111100100001000000000000000001100000111
000000000000010100000001000000000001001000001001111110111111111011111101
000000000000000000000000000000010000110000000001111111110000000011111111
000000010000000000000000000000010000000100000010111111110000000000000000
111111101111110111111111000000100000000000000100000000000000000100000010
111111110000000011111111000000000000011100000000111110111111110111111101
111111011111111000000001111111111111111000000011000000100000001100000100
111111101111110111111110111110101110111100000110111110000000010000000001
111111001111111000000000111111111111011000000001000000110000010000000010
111111001111111011111101111111100000011111111111111111110000000111111110
000011000001001011111010000100010000001111101010111111001110000111110000
111111110000000000000000000000000001000000000001111111100000000011111111
111111101111111000000000000000011110111000000000000001010000010100000011
111111001111110011111100111111010000110011111111111110101111110111111101
111111000000000111111110000000000000110000000111111111010000000100000000
111100110000000100000000110110110000101000001101111011011111110011111100
111111111111111100000000000000001111001011111111000001000000001100000010
111111100000000000000000000000000000110000000001111111110000000100000000
111111110000000000000100000000001111111000000100000000111111110100000010
111111110000000100000101000000111111010100000110000010000000011100000111
111111101111111111111111000000111111111100000001000001000000010100000010
000000000000000000000000000000101111101000000001000001000000010100000011
000000000000000000000001000000011111111000000010000001100000011000000011
111111101111111100000000000000001111100000000010000000110000001100000010
111111100000001011111111111111000000000100000111000000000000001111111110
111111101111111111111110000000000000011011111110000000010000001000000000
000000101111111011111101000001111111110011111011000000001111111111111111
111111110000000000000001000000001110111000000001000001010000001100000011
111111111111111100000000000000101111110011111111000001110000011100000110
111111110000000000000000000000000000101100000000111111011111111111111101
000000010000001000000010000000100000011100000100111111011111111111111111
111111101111111000000011000010001101110100000010000001110000011100001010
111110101111111011111100111111110000100011111110111111010000000111111100
111110111111100111111110000101100000000011101111000010000000101111111110
111111011111111011111111111111100000011100000000111110101111110111111101
111111101111111111111110111111100000110000000000111110101111110011111100
111111101111110111111110111111110000001100000000111110101111110011111101
111111110000000000000001111111110000100100000001111110111111111011111110
111111110000000100000001000000000000110100000001111111100000000100000000
111111110000000000000001000000101111010000000001000001100000011000000101
111111011111110100000000000000001111001000000010000001110000011000000101
111111110000000100000000000000000000100100000000111111011111111011111101
000000000000000000000000000000000000001100000000000000000000000000000000
000000000000000000000000000000000000001100000000000000000000000000000000
000000000000000000000000000000000000001100000000000000000000000000000000
000000000000000000000000000000000000001100000001000000000000000100000001
000000000000000100000000000000000000010100000001000000000000000100000001
000000000000000000000000000000000000001000000000000000000000000000000000
000000000000000000000000000000001111110100000000000000000000000000000000
000000000000000000000000000000000000000000000000000000000000000000000000
000000000000000000000000000000000000001000000000000000000000000000000000
000000000000000000000000000000000000101000000001000000000000000100000001
000000000000000100000001000000010001011000000011000000010000001000000010
000000000000000000000000000000001111111011111111000000000000000011111111
000000000000000100000001000000010000110100000010000000010000000100000001
000000001111111100000000111111111111111011111111000000001111111111111111
000000000000000000000000000000000000010000000001000000000000000100000000
000000001111111111111111111111111111001011111110111111111111111111111111
000000000000000000000000000000001111111000000000000000000000000000000000
000000000000000000000000000000000000000000000000000000000000000000000000
000000000000000000000000000000000000010100000001000000000000000100000001
000000000000000000000000000000000000000100000000000000000000000000000000
000000000000000000000000000000000000011000000001000000000000000000000001
000000000000000000000000000000000000000100000000111111110000000011111111
000000000000000000000000000000000000010000000001000000000000000100000001
000000000000000000000000000000001111110000000000000000001111111111111111
000000000000000000000000000000000000101100000001000000000000000100000001
000000000000000000000000000000000000010000000001000000000000000100000001
000000000000000000000000000000000000000000000000000000000000000000000000
000000000000000000000000000000000000000000000000000000000000000000000000
000000000000000000000000000000001111110100000000000000000000000000000000
000000000000000100000000000000000000011100000001000000000000000100000001
000000000000000000000000000000000000000000000000000000000000000000000000
000000000000000000000000000000001111100011111111000000001111111111111111
000000000000000100000001000000000000100000000001000000000000000100000001
000000000000000000000000000000000000001000000000000000000000000000000001
000000000000000000000000111111111111001011111111000000001111111111111111
000000000000000000000000000000000000000000000000000000000000000000000000
000000000000000000000000000000000000000000000000000000000000000000000000
000000000000000000000000000000001111100100000000000000000000000000000000
000000001111111111111111000000001111100011111111000000001111111111111111
000000000000000100000000000000000000010000000000000000000000000000000000
000000000000000000000000000000001111111100000000000000000000000000000000
000000000000000000000000000000001111111100000000000000000000000000000000
000000000000000000000000000000000000001000000000000000000000000000000000
000000000000000000000000000000001111111100000000000000000000000000000000
000000000000000011111111000000001111110011111111111111111111111111111111
000000000000000000000000000000000000000000000000000000000000000000000000
000000000000000100000000000000010000100000000001000000010000000100000001
000000000000000000000000000000001111111000000000000000000000000000000000
111111101111111111111111111111111111111000000000111111111111111100000000
000000000000000000000000000000001111110100000000000000000000000000000000
111111110000000000000000111111111111111100000001111111110000000000000000
000000000000000000000000000000001111110000000000111111110000000000000000
000000001111111111111111000000001111101011111111000000001111111111111111
111111110000000011111111000000001111111100000000111111110000000000000000
111111110000000000000000111111111111111100000000111111110000000000000000
000000000000000000000000000000001111101000000000111111110000000000000000
000000000000000000000000000000001111111100000000000000000000000000000000
000000001111111111111111111111111111101011111111000000001111111111111111
111111111111111111111111111111111111100011111110111111111111111011111110
000000000000000100000001000000010000101000000010000000010000001000000010
111111110000000000000000000000001111111100000000000000000000000000000000
000000001111111100000000000000001111110111111111000000001111111100000000
000000000000000000000000000000001111111100000000000000000000000000000000
000000000000000100000001000000010000110000000010000000000000001000000010
000000000000000000000000000000000000001011111111000000000000000011111111
000000000000000100000001000000010000110100000010000000010000001000000010
000000000000000000000000000000001111111000000000000000000000000000000000
000000000000000000000000000000000000011000000001000000000000000100000001
000000001111111111111111111111111111101011111111000000001111111111111111
111111110000000000000000111111111111111000000000111111110000000000000001
000000000000000000000000000000001111110100000000000000000000000000000000
000000000000000100000001000000010000110000000010000000010000001000000010
111111110000000011111111111111111111101011111111111111111111111111111111
000000000000000000000000000000001111110100000000000000000000000000000000
111111111111111111111111000000001111101111111111000000001111111111111111
111111111111111111111111000000001111110000000000000000000000000000000000
111111110000000000000000000000001111110100000000111111110000000000000000
000000000000000000000000000000001111111100000000000000000000000000000000
000000000000000000000000000000001111110100000000000000000000000000000000
000000000000000000000000000000000000010100000001000000000000000100000001
111111111111111111111111111111111111111011111111111111111111111111111111
000000000000000000000000000000001111110000000000000000000000000000000000
111111101111111100000000111111110000100000000001111111110000000100000000
000000000000000100000001000000010000101100000001000000010000001000000001
000000000000000000000000000000000000001100000000000000000000000000000000
111111110000000000000000111111110000001000000000000000000000000000000000
000000000000000100000000000000010000100100000001000000000000000100000001
111111111111111111111111000000001111111100000000000000010000000100000000
000000000000000100000001000000010000101000000001000000000000000100000001
000000000000000100000001000000010000101000000001000000010000001000000010
000000000000000000000000000000000000001000000000000000000000000000000000
000000000000000100000001000000010000101000000001000000010000000100000001
000000000000000100000001000000010000111000000010000000010000001000000010
000000000000000000000000000000001111111000000000000000000000000000000000
000000000000000000000000000000001111111000000000000000000000000000000000
000000000000000100000001000000010000101100000010000000010000001000000010
111111110000000000000000000000000000000000000000000000000000000000000000
000000000000000000000000000000001111110000000000000000000000000000000000
000000000000000000000000000000000000000000000000000000000000000011111111
000000000000000000000000000000000000000100000000000000000000000000000000
111111111111111111111111111111111111011011111110111111111111111011111111
111111111111111100000000111111111111111111111111000000000000000000000000
000000000000000000000000000000001111111000000000000000000000000000000000
000000001111111100000000000000001111101000000000000000001111111100000000
000000000000000000000000000000001111110000000000000000000000000000000000
111111111111111111111111111111111111011011111111111111111111111111111111
000000001111111111111111111111111111011011111110111111111111111011111110
000000000000000000000000000000000000000000000001000000000000000100000001
000000000000000000000000000000000000000011111111000000001111111100000000
000000000000000000000000000000000000000000000000000000000000000000000000
000000000000000000000000000000000000001000000000000000000000000000000000
000000000000000100000010000000010001001000000011000000010000001100000011
000000000000000000000000000000000000001000000000000000000000000000000000
000000000000000100000001000000010000011000000001000000010000000100000010
000000000000000000000000000000000000000000000000000000000000000000000000
000000000000000000000000000000001111111000000000000000000000000000000000
111111111111111011111110111111111110111111111110111111111111111011111110
000000000000000000000000000000000000000000000000000000000000000000000000
000000000000000000000000000000000000000100000000000000000000000000000000
000000000000000100000001000000010000100000000010000000010000001000000010
000000000000000000000000000000001111101011111111000000001111111111111111
000000000000000000000000000000001111110011111111000000001111111111111111
111111110000000011111111000000000000000000000000000000000000000000000000
000000000000000000000000000000000000001000000000000000000000000000000000
111111110000000000000000000000000000001000000000000000000000000000000000
000000000000000000000000000000000000000100000000000000000000000000000000
000000000000000000000000000000000000000000000000000000000000000000000000
000000000000000100000001000000010000100000000001000000010000000100000010
111111111111111111111111111111111111110011111111111111111111111111111111
000000000000000000000000000000000000000000000000000000000000000000000000
000000000000000100000010000000010001001100000011000000100000001100000011
000000000000000000000000000000010000001100000001000000010000000100000001
000000000000000000000000000000001111110000000000000000000000000000000000
000000000000000000000000000000000000000100000001000000010000000100000001
111111110000000000000000000000000000011000000001000000000000000100000001
000000000000000000000000000000000000000000000000000000000000000100000000
000000000000000000000000000000000000001000000001000000000000000100000001
000000000000000000000000000000000000000100000001000000000000000100000001
000000000000000000000000000000001111110100000000000000000000000000000000
000000000000000000000000000000000000000100000001000000000000000100000001
000000000000000100000001000000010000100000000010000000010000001000000010
000000000000000000000000000000001111111100000000000000000000000000000000
000000000000000000000000000000000000001000000000000000000000000000000000
000000000000000000000000000000000000001000000001000000000000000100000001
000000001111111111111111000000000000000100000000000000000000000000000010
111111110000000011111111000000000000011000000001000000000000000100000000
000000000000000100000000000000010000011000000001111111111111111111111110
000000000000000000000000000000001111111000000000111111110000000000000000
000000010000000000000001000000011111111100000000000000000000000011111111
000000010000000011111101000000010000000111111101000000000000000011111101
000000010000000000000001000000010000010000000000000000000000000000000000
000000000000000000000000000000001111101011111111111111111111111111111111
000000000000000000000000000000000000010100000000000000000000000100000000
000000000000000100000001000000010000010100000001000000000000000100000001
111111110000000100000001000000000000010000000001000000000000001000000010
000000000000000000000000000000010000100100000001000000010000000100000001
000000000000000000000000000000001111111000000000000000000000000000000000
000000010000001000000000000000010000000111111110000000001111111111111101
000000000000000000000000000000001111111000000000111111110000000000000000
000000001111111111111110111111111111100111111110111111111111111011111110
111111110000000011111100000000000000000111111100111111001111111011110111
000000000000000000000000000000000000010000000000000000010000000100000000
000000000000000000000000000000001111111000000000111111110000000000000000
000000000000000100000000000000010000101000000001000000000000001000000001
000000000000000000000000000000000000000100000001000000000000000000000000
000000010000000100000001000000010000011100000010000000000000000100000010
000000000000000000000000000000001111110000000000111111111111111111111111
000000000000000011111111000000001111111111111111000000001111111111111111
111111110000000100000001111111110000010100000001111111110000000100000000
000000000000000000000000000000001111111011111111000000001111111111111111
000000000000000011111111111111111111110111111111111111111111111111111111
111111110000000011111111111111111111110011111111111111111111111111111111
000000001111111111111111111111111111110111111111111111111111111111111111
000000000000000000000000000000001111111000000000000000000000000000000000
000000000000000000000000000000000000001111111111111111111111111111111111
000000001111111111111111111111111111101111111111111111111111111111111111
000000000000000011111111000000000000000011111111000000000000000111111111
111111110000000000000000111111111111101111111111111111111111111111111111
000000000000000011111111000000001111111111111111111111111111111111111110
000000000000000000000000000000010000011000000000000000010000000100000000
000000010000000100000000000000010000011100000001000000010000000100000001
000000000000000011111111000000000000000011111111000000000000000011111111
111111111111111111111111111111111111110011111111111111111111111111111111
000000000000000111111010111111110000010111111011000000000000000111111011
000000000000000000000000000000010000011000000001000000000000000100000001
000000000000000000000000000000010000100000000001000000010000001000000001
000000000000000100000000000000010000110100000010000000010000001000000001
000000000000000100000000000000010000101100000001000000010000001000000001
000000000000000000000000000000000000001000000000000000000000000000000000
000000000000000000000000000000001111110011111111111111111111111111111111
000000000000000000000000111111111111101111111111111111111111111111111111
000000010000000100000000000000010000011100000001000000010000000100000001
111111101111111011111111111111110000001000000001111111100000000000000000
000000000000000000000000000000000000000100000000000000000000000000000000
000000000000000100000001111111110000000100000001111111111111111100000000
111111111111111111111111111111111111110000000000111111111111111111111111
000000000000000000000001000000000000001000000001000000010000000100000001
111111110000000011111111111111110000010100000010111111110000000100000000
111111101111111111111111111111101111111111111111111111111111111111111111
111111110000000000000000000000000000001100000001000000000000001000000001
000000010000000100000001000000000000001000000001000000000000000000000001
000000000000000000000000000000000000001100000001000000000000000100000001
111111101111111111111111111111111111110000000000111111111111111111111111
000000000000000100000001000000010000011000000001000000000000000100000001
111111111111111111111111111111111111100011111111111111111111111111111111
000000001111110111111111111111111111101011111111000000001111111100000010
111111111111111111111111111111111111011111111111111111111111111111111111
111111111111111111111111111111111111110011111111111111111111111111111111
000000010000000100000000000000001111110100000000111111111111111111111111
111111110000000000000000000000001111111100000000111111110000000000000000
111111111111111111111111111111111111101111111111111111111111111111111111
111111110000000000000000111111110000000100000000111111110000000000000000
111111110000000100000001000000000000100000000010000000010000001000000010
111111010000000000000001111111100000001100000001111111110000000100000001
111111111111111111111111111111111111100111111111111111111111111111111111
000000000000000000000000000000001111111100000000000000000000000011111111
111111101111111111111110111111101111101011111111111111101111111011111110
000000000000000011111111000000000000000000000000111111110000000000000000
111111111111111111111111111111111111100011111111111111111111111111111111
000000001111111111111111111111111111101011111111111111111111111111111111
000000000000000000000000111111111111110111111111111111111111111111111111
111111111111111111111111111111111111101011111111111111111111111111111111
111111111111111100000000111111101111100011111111000000000000000000000000
111111111111111111111111111111111111110100000000111111110000000000000000
111111110000000011111111000000001111111100000000000000000000000000000000
111111111111111100000000111111111111101011111111111111111111111111111111
111111101111111011111110111111101111011111111101111111011111110111111101
000000000000000000000001000000000000001000000001000000000000000100000001
000000000000000100000001000000010000100100000010000000010000001000000010
111111101111111011111110111111101111101011111101111111011111110111111110
111111110000000000000000000000000000000100000000000000000000000100000000
111111111111111111111111000000000000000100000001000000000000000100000000
000000000000000100000001000000000000010100000001000000000000000100000001
000000000000000100000000000000000000001000000001000000000000000100000001
000000000000000100000001000000000000011100000010000000000000001000000010
000000000000000100000001000000000000001100000001000000000000000100000001
000000000000000000000000000000000000001100000001000000000000000100000001
000000000000000000000000000000001111111000000000111111110000000000000000
111111111111111111111111111111111111101011111111111111111111111111111111
000000000000000100000001000000010000001100000001000000000000000100000001
000000010000000100000000000000000000000100000000111111110000000000000000
111111111111111100000000000000000000000100000000111111110000000000000000
000000000000000000000000000000000000000100000001000000000000000100000001
000000000000000100000000000000010000001000000001000000010000000100000001
000000000000000100000000000000010000100000000001000000010000000100000001
000000010000000100000000000000000000000000000001000000010000000000000001
000000001111111111111111000000001111101011111111000000000000000000000000
111111110000000100000000000000010000101100000001000000010000000100000001
000000000000000000000000000000010000011000000001000000000000000100000001
000000000000000000000000000000000000001000000000000000000000000000000000
000000000000000000000000000000000000000000000000000000000000000000000000
000000000000000100000001000000010000101100000001000000010000000100000001
000000010000000100000001000000010000100100000010000000010000001000000001
000000001111111100000000000000000000001100000000000000000000000000000001
000000000000000100000001000000010000011000000001000000010000000100000001
111111111111111111111111111111111111111111111111111111111111111111111111
000000010000000011111111000000000000000000000001000000000000000000000010
000000000000000000000000000000000000011000000000000000000000000100000001
000000010000000100000001000000010000001100000001000000010000000100000001
111111110000000000000000000000000000001100000000000000000000000000000000
000000000000000100000001000000000000110100000010000000010000001000000001
111111110000000000000000000000000000001100000000000000000000000100000000
000000010000000100000001000000010000010100000001000000010000000100000001
000000000000000000000000000000000000010000000000000000000000000000000000
111111111111111111111111111111111111011011111111111111111111111111111111
000000010000000100000001000000010000011000000001000000010000000100000001
000000000000000100000000000000010000010100000001000000010000000100000000
000000000000000000000000000000000000000100000000000000000000000000000000
000000000000000000000000000000001111111000000000000000000000000000000000
000000000000000100000001000000010000010100000001000000010000000100000001
000000000000000000000000000000000000010000000001000000000000000100000000
000000000000000000000000000000000000000000000000111111110000000011111111
000000000000000000000000000000001111111000000000000000000000000000000000
000000010000000100000001000000010000010000000001000000010000000100000001
111111011111110111111101111111101111000111111101111111011111110111111101
000000000000000100000000000000010000100000000001000000010000000100000001
000000010000000100000001000000010000101100000001000000010000000100000010
111111101111111011111110111111111111010011111111111111101111111111111111
111111110000000011111111000000000000010100000000111111110000000000000000
000000000000000100000010000000000000000000000010000000010000000100000010
000000000000000100000001000000010000101000000001000000010000000100000001
000000000000000000000001000000010000100100000001000000010000000100000001
000000000000000000000001000000000000100100000001000000010000000100000001
000000000000000100000001000000010000110000000001000000010000000100000001
000000000000000000000000000000000000101000000001000000000000000100000001
000000000000000000000000000000000000000000000001000000000000000000000001
000000010000000100000001000000010000011100000010000000010000001000000001
000000000000000100000001000000010000101100000001000000010000000100000001
111111011111111100000001111111111111000000000010111111100000100000000000
000000011111111111111101000000010000111111111110000000100000000011111111
000000110000010011111100000001000000011100000000000000011111111100000001
000000000000001000000101111111111111011100000101111111110000000100000100
000000010000000011111111111111111111111011111111000000011111111100000000
111111101111010111111101111110101011110111110011111111111111001111111001
000000100000000100000001000000101110110000000101000000000000000100000010
000000010000000011111101000000010000011111111110000000010000000011111111
000000001111111111111101000000010000010111111101000000100000000011111110
000000100000000100000001000000010000011100000001000000010000000100000001
000000010000000000000001000000100000001000000011000000010000000000000010
000000001111111011111100000000010000100011111101000000100000000011111110
000000100000001000000011000000011111111100000011000000010000000100000010
111111111111101011111111111110101100010111111110000000011111011111111101
000000010000001100000100000000001111110000000100000000000000000100000011
111111111111111000000010111111110000010000000010000000100000001000000010
000010011111101000000001000000111100001011111100000001001111011000001000
000000001111111011111101000000000000101011111110000000100000000011111111
000000000000001000000101111111111111100100000101111111110000000100000011
111111101111110011111011111111110000011011111100000000001111111111111110
000000011111111011111110000000010000000011111101000000111111111011111101
000000010000011111111100000000110001010100000110000000010000010100000000
000000000000001000000011111111111111000100000011111111110000000000000010
111111111111110111111111111111110000010011111111000000010000000000000000
000000000000000000000000000000000000011100000010111111100000000100000010
111111100000000000000100111111001111010100000100111111011111111100000011
000000000000001000000010000000001111011100000011111111110000000000000000
000000000000001000000100111111111111100100000100111111110000000100000011
000000000000001000000100111111111111101100000100000000000000000100000010
000000010000001000000011000000001111111000000100000000000000000100000010
111111110000000100000000111111011111011100000001000000000000000000000000
111111111111111100000001000000000000001000000001000000010000000100000010
000000001111110000000010000000001110000011111111000000011111110000000001
000000000000001000000100111111101111000000000101111111110000000000000011
111111111111111100000011111111100000001000000100000000010000000100000011
000000001111111011111101000000010000010011111101000000100000000011111110
000000001111111011111101000000010000101011111110000000100000000011111111
111111101111111000000101111111001110110000000100111111111111111000000110
000000001111111011111111000000100000010111111111000000110000000100000000
000001011111000100000111000010011000101111110001000010111111010111111010
111111111111110111111011000000010000011011111101000000101111111111111101
000000001111110111111011000000010000101011111100000000100000000011111101
111111111111110011111010000000000000010111111011000000011111111011111100
000000001111110111111011000000010000100011111100000000100000000011111101
111111101111110111111110111111110000000011111111000000011111111100000000
000000000000001000000100111111111111010100000100111111110000000100000011
000000010000001000000101111111111110111100000110111111110000000000000011
000000001111110111111100000000010000100011111101000000100000000011111110
000001000000011000000011000000100000110000000110111111100000011000000101
000000100000001000000000000000000000110011111110111111101111111011111100
000001000000010100000010111110011110011111110011111101111110110111101011
111111110000000100000001000000001111001100000001000000010000001100000011
000000110000001000000001000000011111110011111101111111101111110011111011
000001000000010011111011000000111111101011110001111111011111011111101111
000000100000010000000000000000010000010000000000000000010000001011111111
000001000000001100000100000000001111111100000001111111011111110111111110
000001000000001100000001000000100000101011111111000000000000000011111110
000000100000001000000001000000010000010100000000111111110000000011111111
000000100000001100000000000000010000001011111111000000000000000011111110
000000100000001100000001000000000000111111111111111111101111111011111101
000000110000001100000010000000101111101100000001000000010000001000000001
000001010000011011111100000001000000001011101110111111101111100011101001
000000000000001100000010000000001111011100000010000000100000010100000100
111111101111111000000001111111100000001100000001000000000000001100000011
000000010000010011111010111110011111110111101000111101101110111111100101
000000010000000100000000000000000000011111111110111111101111111011111110
000000000000000100000001111111111111001000000001000000010000001100000100
111111110000000000000000111111010000101111111110111110111111110111111100
000000110000001000000001000000010000111000000000111111101111110111111011
000001100000011100000110000000001111111100000010000000001111111111111110
111111110000000100000000111111111111000000000000000000010000001000000011
000000010000000000000000111111110000011011111111111111101111111111111110
000001000000010000000010000000010000010111111111111111111111110111111101
000000100000000100000001000000101111100000000000000000110000000100000010
000000000000000100000001000000001111001100000000000000010000001100000011
111111110000000000000000111111111111000100000000000000010000001100000100
111111110000000000000000111111111111011000000001000000010000010000000011
000000000000000100000001000000001111011000000001000000010000001000000010
000000010000000111111110000000000000000111111110000000010000000011111011
000000001111111100000000111111110000000000000001000000010000001000000011
000000010000001011111111000000000000010111111100111111110000000011111100
111111110000000000000000111111101110101100000000000000000000001000000011
111111110000000000000000111111110000000000000000000000100000010100000100
000000110000001000000001000000000000100111111110111111101111111111111101
000000100000000100000001000000000000110111111111111111101111111011111101
000000010000000111111110000000011111110011111100000000010000000000000000
111111100000000000000001111111110000100000000010111111100000001000000010
000001000000100011110011111111100000010111101111111110101111110011101101
000000010000000100000000111111110000110011111110111111001111110111111100
000000110000001100000010000000000001001011111110111111101111111111111101
000000000000000100000000111111010000101111111101111110111111110011111010
000000100000001000000001111111110000111011111110111111011111110111111011
000000011111111111111111111111100000011011111110111111011111111011111101
111111110000000100000000000000001111000100000001000000010000001100000100
111111110000001000000010111111111110101100000001000000100000010000000101
000000100000001100000001111111110000110011111110111111101111111011111101
000000010000000100000000000000001111111000000000111111111111111100000000
000000000000000000000000000000001111111100000000000000010000000000000000
111111001111101111111100000000000000001000000000000000010000001000000001
000000000000000000000000000000000000100000000010000000000000000100000001
000000001111111111111111111111111111110011111111111111110000000000000000
111110111111110111111111111110101111111100000001111111011111111100000010
000000001111111100000000000000011111101111111111000000010000000100000001
000000001111111011111111111111111111011011111110111111111111111011111110
000000000000000000000000000000001111110111111111000000001111111111111111
000000000000000011111111111111111111111100000000111111110000000000000000
111111110000000100000000111111110000000100000001111111110000000100000001
000000000000000000000000000000000000000100000000000000000000000000000000
111111110000000000000000000000000000010000000001111111110000000100000001
111111011111110100000000111111011111111000000000111111100000000000000010
000000000000000000000000000000000000011000000001111111110000000000000000
000000001111111011111111111111111111010011111101111111111111110111111101
111110101111110111111110111110110000011100000001111110110000001100000000
000000000000000000000000000000001111111000000000000000000000000000000000
000000000000000100000001000000000000100100000010000000000000000100000001
000000000000000000000001000000001111110000000000000000010000000000000000
000000010000000000000001000000001111110011111111000000000000000000000000
000000011111111111111111000000100000000011111110000000010000000011111111
000000000000000100000000000000000000011100000001111111110000000000000001
000000000000000000000000000000001111110011111111000000001111111111111111
000000000000000100000001000000010000010100000001000000010000001000000010
111111110000000000000000111111110000000000000001111111110000000000000001
000000000000000011111111111111111111111111111111111111101111111111111111
111111110000000000000000000000000000001000000000111111111111111100000000
000000000000000000000000000000000000000100000000000000001111111100000000
000000000000000000000000000000000000011000000001000000000000000100000001
000000001111111111111111111111111111101111111110111111111111111111111111
111111111111111111111111111111111111011111111110111111111111111011111110
111111100000000000000000111111011111110000000001111111010000000000000000
000000000000000100000000000000000000101000000001000000000000000100000001
111111111111111111111111111111111111100011111111111111111111111111111111
000000000000000000000000000000001111111100000000000000000000000011111111
000000000000000000000000000000001111111100000000000000000000000000000000
111111101111111100000001111111011111010100000000111111101111111100000001
111111111111111011111110111111101111001011111100111111111111110111111101
111110110000000100000000111101101111111011111111111110010000000000000000
000000000000000000000000000000001111111000000000000000010000000000000000
000000000000000000000000000000001111111000000000000000000000000000000000
000000000000000000000000000000001111111000000000000000010000000000000000
111111111111111111111111000000001111111011111111000000000000000011111111
000000000000000000000000000000001111110100000000000000010000000000000000
000000000000000000000001000000000000011000000001000000000000000000000001
000000000000000100000001000000010000101100000010000000000000000100000001
000000000000000000000000000000000000000000000000000000000000000000000000
000000000000000000000010000000000000010100000101000000100000010000000101
111111111111111011111110111111101111100011111110111111111111111011111110
000000100000001000000010000000100000110100000010111111101111111100000000
000000010000000100000001000000000000001100000001000000000000000100000010
000000000000001000000000000000010000100100000000000000000000000100000000
000000010000011100000000000000110001001100000111000000010000100000000110
000000000000001000000001000000000000101100000100000000000000001100000011
000000000000000111111111000000010000011100000000000000010000001100000001
111111111111111111111111111111111111111011111111111111111111111111111111
000000000000000011111111111111111111111000000000000000000000000011111111
111111111111111111111111111111110000000100000000000000000000000000000000
111111111111111111111111111111111111111011111111111111111111111111111110
000000000000000000000000000000000000010000000001000000000000000100000001
000000100000010000000010000001000000100100000110000000110000010100000101
000000010000000000000001000000000000001100000010000000000000000100000010
000000001111111111111111000000000000000011111110000000001111111100000000
000001100000011000000001000001010000110111111100111111111111110111111110
000000000000000000000000000000000000001011111111111111110000000011111111
000000010000000100000001000000000000001100000010000000000000000100000010
000000010000000100000001000000010000100000000001000000010000000100000001
000000010000001000000000000000010000100100000000000000010000001000000000
000000000000001000000010111111110000100000000001111111110000001100000001
000000010000000100000010000000000000010000000010000000000000000100000010
000000000000000100000000000000000000010100000000000000000000000000000000
000000000000000100000001000000000000001000000001000000010000001000000001
000000000000001000000001000000000000101100000011000000000000001000000011
000000010000000100000001000000000000000000000001000000000000000100000001
000000010000000100000001000000000000001100000001000000010000000100000010
000000010000000000000000000000000000001000000001000000000000000000000001
000000010000000000000001000000000000001000000001000000000000000100000001
000000010000000100000010000000100000110000000011000000010000001100000011
000000000000000011111111111111110000000111111111000000000000000000000000
000000100000001000000000000000010000011011111111000000000000000011111111
000000100000001000000010000000010000011100000010000000010000000100000011
000000000000000100000000000000001111111011111111000000000000000011111111
000000000000000011111111000000001111111111111111111111110000000011111111
000000001111111111111111000000001111110111111111111111111111111111111111
000000010000001100000001000000100000011000000001000000010000000100000001
000000010000000000000000000000000000001011111111000000000000000000000000
000000101111111111111110000000110000011100000001000001000000001000000001
000000000000000011111111000000001111111011111111000000000000000011111111
111111111111111111111110111111111111110011111111111111111111111111111110
000000001111111111111111000000001111111111111111000000001111111111111111
000000001111111111111111000000001111111111111111111111110000000011111111
000000000000000100000000000000010000100100000000000000000000000100000000
000000100000001000000010000000010000010100000010000000010000000100000010
000000100000001000000010000000010000011100000011000000010000001000000011
000000001111111111111111000000000000000011111111111111111111111111111111
000000010000001000000000000000101111111111111111000000001111111000000000
000000000000000000000000000000000000000000000000000000000000000000000000
111111111111111111111111111111111111110011111111000000010000000011111111
000000001111111111111111000000000000000100000000000000010000000000000000
111111101111110111111110111111101111011011111101111111101111110111111110
111111111111101011111011111111001110011011111000111111111111101011111011
111111110000000011111111000000011111110011111110000000000000000000000000
111111111111111011111110111111111111100011111110000000001111111111111110
000000000000000000000000000000001111111100000000000000000000000000000000
000000001111111100000000111111111111110111111111111111111111111011111111
111111111111111111111111111111101111101011111110111111101111111011111110
000000000000000000000000000000001111111100000000000000000000000000000000
000000001111111111111111111111111111110011111110111111111111111111111110
111111101111101011111111111111011110100111111100111111101111100111111110
111111111111111111111111000000001111110111111111000000000000000000000000
111111111111111100000000000000001111110000000001000000000000000100000001
111111101111101111111111111111011111100011111111000000010000000000000010
000000001111111100000000000000001111110000000000000000000000000000000000
111111111111111111111111000000001111111100000000000000010000000000000000
000000000000000000000000000000001111110100000000000000000000000000000000
111111111111111111111111111111101111100011111101111111101111110111111101
000000010000000100000000000000001111101111111110000000001111111111111111
111111111111111111111111000000000000000000000000000000010000000000000000
111111111111111100000000111111111111101100000000000000000000000000000000
111111111111111111111111111111111111101011111110111111111111111111111110
000000001111111100000000000000001111111011111111000000000000000000000000
000000001111111111111111000000001111111000000000000000000000000000000000
111111111111111111111111000000000000000000000000000000010000000100000001
111111111111111111111111000000000000000000000001000000010000000100000001
111111111111111111111111000000001111111011111111000000000000000011111111
111111111111111011111111111111111111100111111110000000001111111111111111
111111111111111111111111000000001111111000000000000000000000000000000000
111111111111111000000000111111101111101011111111111111101111111011111111
111111111111111111111111000000000000000100000000000000010000000100000001
000000000000000000000001000000010000001100000010000000010000001000000011
000000000000000000000000000000001111111000000000000000000000000000000000
000000010000000000000001000000000000000100000001000000010000000100000000
111111011111110111111110111111101111100011111111111111101111111100000000
111111110000000011111111000000001111111100000000000000000000000000000000
000000100000001000000001000000001111101100000001000000101111111100000000
000000000000000000000001000000001111111100000000000000000000000000000000
000000000000000000000001000000001111111100000000000000000000000000000000
000000010000000100000001000000010000000100000001000000010000000100000000
000000000000000000000001000000001111111100000001000000010000000000000000
000000001111111100000000111111111111101000000000000000000000000000000000
000000000000000000000000000000010000001000000001000000010000000100000001
000000001111111100000000000000000000000100000000000000010000000000000000
000000000000000000000000000000001111111000000000000000010000000000000000
111111110000000011111111000000001111111111111111111111110000000000000000
000000000000000100000001000000010000000000000001000000010000000100000001
000000000000000000000000000000000000001000000001000000000000000100000000
000000001111111111111111000000000000010000000000000000000000000000000000
111111111111111111111111111111111111011111111111111111111111111111111111
111111111111111011111111111111101111100111111110111111111111111011111111
111111111111111100000000111111111111101000000000111111110000000000000000
111111101111110111111101111111011110101011111100111111011111110011111100
000000000000000000000001000000000000000000000001000000010000000100000001
000000000000000000000000000000000000000000000000000000000000000000000000
000000000000000000000000000000000000011000000001000000000000000100000001
000000000000000000000000000000001111111000000001000000000000000100000001
111111111111111111111111111111111111111111111111111111111111111111111111
111111101111110111111110111111111111101011111110111111101111110111111110
111111111111111111111111000000000000001011111111000000001111111111111111
111111111111111111111111111111111111010011111110111111111111111011111110
000000010000000000000000000000000000011000000001000000010000000100000000
000000000000000000000000000000001111111100000001000000000000000100000001
111111111111111111111111000000000000010000000000000000000000000000000000
000000000000000100000001000000010000000100000001000000010000001000000010
111111111111111111111111111111111111010111111110111111111111111011111111
000000000000000000000000000000001111111000000000111111111111111100000000
111111111111111111111111000000000000001100000000000000000000000000000000
000000000000000000000000000000001111110100000000000000010000000000000000
000000000000001000000010000000010000110100000011000000010000001100000100
111111111111111111111111000000001111111111111111000000001111111111111111
111111111111111111111111000000000000000011111111000000001111111111111111
000000001111111111111111000000000000001100000000000000000000000000000000
000000001111111111111111000000000000000000000000000000000000000000000000
111111111111111111111111000000000000000111111111000000000000000011111111
111111111111111111111111111111111111100111111110111111111111111011111111
111111111111111111111111111111111111011111111111111111111111111111111111
000000000000000000000000000000000000000000000001000000000000000000000000
111111111111111111111111000000000000010000000000000000000000000000000000
000000000000000000000000000000010000010100000001000000010000000100000010
000000000000000000000000000000000000000000000001000000010000000100000001
000000000000000000000000000000001111110000000000000000000000000000000000
000000000000000000000001000000010000001100000010000000010000001000000010
111111101111111011111110111111101110111011111101111111101111110111111101
000000000000000000000000000000001111111100000000000000010000000100000001
000000000000000000000000000000001111110100000001000000000000000000000001
000000000000000100000001000000010000000000000001000000010000000100000001
000000000000000000000000000000001111111100000001000000010000000100000001
000000000000000000000001000000000000000000000001000000010000000100000001
000000000000000000000000000000001111101000000000000000000000000000000000
000000001111111111111111000000000000001000000000000000000000000000000000
111111111111111111111111000000000000001111111111000000000000000011111111
000000000000000000000000000000001111111100000001000000010000000100000001
000000000000000000000000000000000000001000000000000000000000000000000000
000000000000000000000000000000000000011000000001000000000000000100000001
000000000000000000000000000000010000001000000001000000000000000000000000
000000000000000000000000000000000000000000000000000000000000000000000000
000000000000000000000000000000000000000000000000000000000000000000000000
000000000000000000000000000000001111111000000000000000000000000000000000
000000000000000000000000000000001111111000000000000000000000000000000000
000000000000000000000000000000001111110000000000111111111111111111111111
000000000000000000000000000000000000010100000001000000000000000100000001
000000000000000000000000000000000000011000000001000000000000000100000001
000000000000000100000001000000010000111100000011000000010000001100000011
000000000000000000000000000000000000000100000000000000000000000011111111
000000000000000000000000000000000000001100000001000000000000000100000001
000000001111111100000000111111110000000000000000000000000000000000000000
000000000000000000000000000000000000000000000000000000000000000000000000
111111111111111111111111111111111111000111111110111111111111111011111110
000000000000000000000000000000001111111000000000111111110000000000000000
000000000000000011111111000000000000000011111111000000000000000011111111
000000000000000000000000000000000000000100000000000000000000000000000000
000000000000000000000000000000000000011000000000000000000000000000000000
000000000000000000000000000000000000000100000000000000000000000000000000
000000000000000000000000000000000000001100000000000000000000000000000000
000000000000000000000000000000001111111000000000000000000000000000000000
000000001111111111111111111111111111110011111111111111111111111111111111
000000000000000100000001000000010000101100000010000000010000001000000010
000000000000000000000000000000000000001000000001000000000000000100000001
000000000000000000000000000000001111110100000000000000000000000000000000
000000000000000000000000000000001111111000000000000000000000000000000000
000000000000000000000000000000001111101100000000000000000000000000000000
000000000000000000000000000000000000000100000000000000000000000000000000
000000000000000000000000000000001111111000000000000000000000000000000000
000000001111111111111111111111111111100011111111111111111111111111111111
000000000000000000000001000000000000010000000001000000000000000100000001
000000000000000000000000000000001111111000000000000000000000000000000000
000000001111111111111111111111111111010111111111111111111111111111111111
000000000000000000000000000000000000000100000000000000000000000000000000
000000000000000000000000000000000000001100000000000000000000000000000000
000000001111111111111111111111111111100000000000000000000000000000000000
000000001111111111111111111111111111011111111111111111111111111111111111
000000000000000000000000000000000000000100000000000000000000000000000000
000000000000000000000000000000000000010000000000000000000000000000000000
000000000000000000000000000000000000001100000000000000000000000000000000
000000000000000000000000000000000000011100000001000000000000000000000000
000000000000000000000000000000000000010000000000000000000000000000000000
000000001111111111111111111111111111110011111111111111111111111111111111
000000000000000000000000000000001111111100000000000000000000000000000000
000000000000000000000000000000000000001100000001000000000000000100000001
000000000000000000000000000000000000000000000000000000000000000000000000
000001100000011000000100000001000000100100000001000001000000000100000000
000000010000000000000000000000001111100111111110000000010000000000000000
000000001111110100000000111111111111111000000011000000110000010000000101
000000000000000000000000111111110000001100000000111111101111111111111111
000000000000000000000001000000010000010000000010000000100000001000000010
000001000000010000000001000001000000010000000101000000110000011100000110
000000010000000100000000000000110000110000000100000000100000010000000001
000001000000001100000001000001000000001000000000000001010000010100000011
000000010000000000000000000000001111111000000000000000010000000000000001
000000000000000000000000000000001111110111111111000000010000000000000000
000000010000000100000001000000000000011000000001000000010000000100000001
000000100000000100000001000000001111101111111111000000100000000000000000
000000010000000100000001000000000000010100000001000000000000000100000000
000000110000011000000010000000010000010000000110000000110000100000000111
000000100000000000000000000000001111111011111110111111111111111011111111
000000110000000100000000000000010000001011111110000000001111111011111110
000000001111110011111111000000000000010000000101000000100000000100000011
000000100000000100000010000000011111111100000000000000100000000000000001
000000010000000000000000111111110000000011111111111111111111111011111111
000000110000001000000010000000011111100100000000000000100000000000000001
000000110000001100000010000000010000010100000001000000110000001100000011
000001100000001011111111000001111111111111111100000001110000010011111111
000000100000000100000001000000000000001000000000111111111111111100000000
000000100000000100000001000000010000000100000000000000010000000000000000
000000100000000100000001000000011111111100000001000000110000001100000001
111111100000000000000000111111110000011100000010111111110000001000000010
000000110000001000000001000000001111111011111111000000001111111011111111
000000100000000100000001000000000000000011111111111111111111111011111110
000000100000000100000001000000010000001111111111000000001111111111111111
000000010000000000000000000000000000000100000000000000000000000000000000
000000100000000100000010000000100000100000000011000000100000001100000100
000000100000000100000000000000000000000111111111000000001111111111111110
000000010000000100000000000000000000011000000000000000010000001000000001
000000100000000100000001000000010000001100000000000000000000000000000000
000000100000001000000001000000010000001000000001000000000000000000000000
000000100000000100000001000000011111111100000000000000100000000000000000
000000010000000000000000000000001111101011111110000000010000000000000000
000000000000010000000010000000010000111100000110000000000000010100000010
000001010000001100000001000000011111111011111110000000011111111011111110
000000110000001100000010111111000000001000000110111111100000000000000110
000000110000001000000001000000011111111111111111000000100000000000000000
000000110000000100000001000000011111100111111111000000100000000000000000
000000110000000100000001000000011111110011111110000000100000000000000000
000000110000000100000001000000011111101111111111000000100000000000000000
000000100000001000000010000000010000001100000000000000100000000100000000
000000100000001000000010000000000000010100000001111111110000000000000000
000000110000001000000010000000010000010000000000000000000000000000000000
000000110000000100000001000000011111110011111111000000100000000000000000
111111111111111100000000000000000000000100000000111111110000000000000001
000000000000000000000000000000000000000000000000000000000000000011111111
000000000000000000000000000000000000000100000000000000001111111100000000
000000000000000000000000000000000000000100000000000000000000000000000000
000000000000000000000000000000001111110000000000000000001111111100000000
000000000000000000000000000000000000010100000000000000000000000000000000
000000000000000000000000000000000000010000000000000000000000000000000000
000000000000000000000000000000000000000100000001000000000000000100000001
000000000000000000000000000000000000000100000000000000000000000000000000
000000001111111111111111000000001111101111111111111111111111111111111111
111111111111111111111111111111111111010111111110111111111111111011111110
000000000000000000000000000000000000001100000000000000000000000000000000
111111111111111111111111111111111111100111111111111111111111111111111111
000000000000000000000000000000000000000000000000000000000000000011111111
000000000000000000000000000000000000011000000001000000000000000100000001
000000000000000100000001000000010001000000000011000000010000001100000011
000000000000000000000000000000000000000000000000000000000000000000000001
000000000000000000000000000000000000010000000001000000000000000100000001
000000000000000000000000000000000000001000000000000000000000000000000000
000000000000000000000000000000000000000100000000000000000000000000000000
000000000000000011111111000000001111100111111111000000001111111111111111
000000000000000000000000000000000000001000000000000000000000000000000000
000000000000000000000000000000000000010000000000000000000000000000000000
000000000000000000000001000000000000011100000001000000000000000100000001
000000001111111100000000000000001111101011111111111111111111111111111111
000000000000000000000000000000001111111000000000000000000000000000000000
000000000000000000000000000000000000010000000001000000000000000000000000
000000000000000000000000000000000000100100000001000000000000000100000001
000000000000000100000001000000000000101000000001000000000000000100000001
000000000000000000000000000000000000000100000000000000000000000000000000
000000000000000000000000000000001111111100000001000000000000000000000000
000000000000000100000001000000010000101100000010000000010000001000000010
000000001111111111111111111111111111101011111111111111111111111111111111
000000000000000000000000000000000000010100000001000000000000000000000001
111111110000000000000000000000000000101100000010000000000000001000000010
000000000000000000000000000000000000010000000000000000000000000100000000
000000000000000000000000000000000000000100000000000000000000000000000000
000000000000000000000000000000001111111000000000000000000000000000000000
000000000000000100000001000000010000110100000010000000010000001000000011
000000000000000000000000000000000000000000000001000000000000000000000001
000000000000000000000000000000000000001100000000000000000000000000000000
000000000000000000000000000000000000011000000000000000000000000000000000
000000000000000000000000000000000000001000000000000000000000000000000000
000000000000000000000000000000000000010000000000000000000000000000000000
000000000000000100000001000000010000011100000001000000000000000100000001
000000000000000000000000000000000000010100000001000000000000000100000001
000000000000000000000000000000000000001100000000000000000000000000000000
000000000000000000000000000000000000010100000001000000000000000100000000
111111110000000011111111111111110000001011111111111111110000000000000000
000000010000000100000001000000010000110100000010000000010000001000000010
000000000000000100000000000000000000000000000001111111110000000000000000
111111110000000000000000111111111111110000000000111111110000000011111111
000000010000000100000001000000010000011000000001000000010000000100000001
000000000000000011111111111111111111111100000000111111110000000100000000
111111110000000000000000111111110000001011111111111111110000000000000000
000000010000000100000001000000010000011000000001000000010000001000000001
000000010000001000000010000000100000111000000010000000100000001000000010
000000000000000100000000000000010000100000000001000000010000000100000001
000000000000000000000000000000000000011000000001000000000000000100000001
000000000000000000000000000000010000010100000001000000000000000100000001
111111110000000011111111000000001111111011111111000000001111111111111111
000000000000000100000000000000000000010000000000000000010000000100000001
111111111111111111111111111111111111110111111111000000001111111100000000
111111111111111111111111111111111111110111111111111111111111111111111111
000000100000000111111111000000010000001100000000111111110000000011111110
000000000000000000000000000000001111111100000000000000000000000000000000
111111111111111111111111111111111111101111111111111111111111111111111111
000000000000000000000001000000000000010000000001000000000000000000000001
000000010000000100000001000000010000100100000010000000100000001000000010
111111110000000100000001111111110000010100000001111111110000000100000001
000000001111111100000000000000001111110100000000000000000000000000000000
111111111111111111111111111111111111101111111111111111111111111111111111
000000000000000000000000000000001111111100000000111111110000000000000000
111111110000000011111111000000001111111100000000111111110000000000000000
000000000000000000000000000000000000000000000000000000000000000000000000
111111110000000000000000000000001111111000000000111111110000000011111111
000000000000000000000000000000000000000000000000000000000000000000000000
111111111111111100000000111111111111110111111111000000001111111100000000
000000000000000000000000000000000000001100000001000000000000000100000001
000000000000000000000000000000001111111111111111000000000000000011111111
000000010000000000000000000000010000001100000000000000010000000100000000
000000000000000000000000000000001111111000000000000000000000000000000000
111111111111111111111110111111101111011011111110111111101111111011111101
000000000000000000000000000000000000001000000001000000000000000000000001
000000010000000100000001000000010000100100000001000000010000001000000001
111111111111111111111111111111111111111011111111111111111111111111111111
000000000000000000000000000000000000000000000000000000000000000000000000
000000001111111111111111000000010000001111111111000000010000001000000000
000000000000000100000001000000000000010100000001000000000000000100000001
000000010000000100000001000000010000011100000001000000010000000100000001
000000010000001000000010000000010000110100000010000000010000001000000010
000000010000000100000001000000010000100000000010000000010000000100000010
000000000000000000000000000000000000000000000000000000000000000000000000
000000000000000000000000000000000000000000000000000000000000000000000000
000000000000000000000000000000001111111000000000000000000000000000000000
000000000000000100000000000000010000010100000001000000000000000100000001
000000100000000000000000000000000000000100000000000000001111111100000010
000000010000000000000000000000010000010000000001000000010000000100000001
000000000000000000000000111111111111111000000000111111110000000000000000
000000010000000100000001000000010001010000000001000000010000000100000001
111111110000000000000000111111111111111000000001000000000000000000000000
000000100000000100000000000000100000100000000100000000000000001000000010
000000001111111100000001000000000000000100000000000000001111111100000001
000000000000000000000000000000000000000000000010000000010000001000000001
000000010000000100000001000000010000100100000001000000010000000100000001
000000000000000000000000000000000000001000000000000000000000000000000000
111111111111111111111111000000000000001100000000000000000000000000000000
000000100000001000000010000000110000111100000011000000100000001100000010
000000010000000100000001000000010001000000000010000000010000000100000001
000000001111111100000001000000000000001100000000000000100000000100000001
000000100000001000000010000000110001110000000011000000100000001000000011
000000000000000100000001000000000000011000000001000000010000001000000010
000000100000000011111110111111110000100011111111111111100000000000000000
000000010000001000000010000000100000111000000010000000100000001000000010
000000100000001000000010000000100001100100000010000000100000001000000010
000000100000001000000010000000100001000100000010000000100000001100000011
111111110000000000000000111111111111101000000001000000000000000100000000
000000010000000000000001000000011111101000000001000000000000000000000001
000000100000001000000010000000100001101100000010000000100000001000000010
000000010000000100000001000000100000111100000010000000100000001000000010
000000000000000011111111000000010000010000000000000000000000000000000000
000000010000000100000001000000010001000000000001000000010000000100000001
000000010000000100000001000000010000111100000010000000010000000100000001
000000010000000100000001000000010001010000000010000000010000001000000010
000000000000000000000000000000010000101100000001000000010000000100000001
000000010000000100000001000000100001000100000010000000010000000100000010
000000000000000000000001000000000000001100000001000000000000000100000001
000000000000000000000001000000000000010100000001000000010000000100000001
000000000000000011111111000000000000001100000000111111110000000011111111
000000100000001000000010000000100001110000000010000000100000001000000010
000000000000000000000000000000010000101000000000000000010000000100000001
000000100000001000000010000000110001001000000011000000110000001100000011
000000010000000100000001000000010000011000000001000000010000000100000001
111111110000000011111111000000000000011011111110000000000000000011111111
000000000000000000000000000000001111111100000001000000010000000100000001
000000001111111111111101111111111111111011111111000000010000000111111110
000000100000001000000010000000100000110000000010000000100000001000000010
000000110000001100000011000001000001100000000100000000110000001100000100
000000100000001000000010000000100000111000000010000000100000001000000010
000000100000001000000010000000110001001100000011000000110000001100000011
000000010000001000000001000000100000110100000010000000100000001000000010
000000010000000100000001000000010001010000000001000000010000000100000010
000000100000001000000010000000110001101100000010000000100000001000000010
000000110000001100000011000000110001001100000011000000110000001100000011
111111110000000000000000111111111111111100000000000000000000000000000000
000000000000000000000000000000001111110000000000000000001111111111111111
000000000000000000000000000000000000000100000000000000001111111111111111
000000000000000000000000000000000000000000000000000000000000000000000000
000000000000000000000000000000001111111100000000000000000000000000000000
111111111111111111111111111111111111101111111111111111111111111111111110
000000000000000011111111111111111111111111111111111111110000000011111111
000000000000000100000001000000010000011100000001000000010000001000000010
000000000000000000000000000000001111110100000000000000000000000000000000
000000000000000000000000000000001111111000000000000000000000000000000000
000000001111111111111111111111111111001111111110111111111111111011111110
000000000000000000000000000000000000000000000001000000000000000000000000
000000000000000000000000111111111111110011111111111111111111111111111111
111111111111111111111111111111111111111011111111111111110000000011111111
000000000000000000000000000000000000001100000000000000000000000000000000
000000000000000100000010000000010001000100000011000000010000001100000011
000000000000000000000000000000000000000100000000000000000000000000000000
000000000000000000000000000000000000000100000001000000000000000000000000
000000000000000000000000000000000000000000000000000000001111111100000000
000000000000000000000000000000001111110100000000000000000000000000000000
000000000000000000000000000000001111111000000000000000000000000000000000
000000000000000000000000000000000000000000000000000000000000000000000000
000000000000000000000000000000000000000100000000000000000000000000000000
000000000000000000000000000000000000010100000001000000000000000100000001
111111111111111111111111111111111110111111111110111111101111111011111110
000000000000000000000000000000001111101111111111000000001111111100000000
000000000000000000000000000000000000000100000000000000000000000000000000
000000000000000000000000000000000000001000000000000000000000000000000000
000000000000000000000000000000000000001100000000000000000000000000000000
000000000000000000000000000000000000000000000000000000000000000000000000
000000000000000000000000000000001111110100000000000000000000000000000000
000000000000000000000001000000010000101000000010000000010000000100000010
000000000000000011111111111111111111111011111111111111111111111111111111
000000000000000000000000000000000000000100000000000000000000000000000000
111111110000000000000000000000000000011000000001000000000000000100000000
000000000000000000000000000000000000000000000000000000000000000000000000
000000000000000000000000000000000000001000000000000000000000000000000000
111111111111111111111111111111101111001111111110111111111111111011111110
000000000000000100000001000000010001000100000011000000010000001000000010
000000000000000000000000000000001111111100000000111111110000000100000000
000000000000000000000000000000000000001000000000000000000000000100000001
000000000000000000000000000000000000000100000000000000000000000000000000
000000000000000000000000000000001111111100000000000000000000000000000000
000000000000000000000000000000000000001000000000000000000000000000000000
000000000000000000000000000000000000010000000001000000000000000100000001
000000000000000000000000000000000000001000000000000000000000000000000000
000000000000000000000000000000000000000100000000000000000000000000000000
000000000000000000000000000000000000000100000000000000000000000000000000
000000110000001000000000000000011111111000000000000000010000000100000001
000000000000000011111111000000001111110111111111111111111111111111111111
111111110000000000000000111111111111111011111111111111111111111011111110
000000000000000000000001000000001111111000000000000000010000000100000001
000000010000000000000000000000001111111111111111000000001111111111111111
111111011111110111111100111111001110111111111100111111011111101011111100
000000000000000000000000000000001111111100000000000000001111111100000000
000000100000001000000010000000010000001100000010000000100000000100000010
000000000000000011111111111111111111111011111111111111111111111111111111
000000010000000100000000000000000000000100000000000000000000000000000000
000000000000000000000000000000001111111011111111111111111111111111111111
000000000000000000000000111111111111111111111111000000001111111111111111
000000000000000000000000000000001111101000000000000000001111111100000000
000000011111101100000000111111111110110011111100111111101111101011111110
000000000000000000000001000000001111110000000001000000010000000100000001
000000001111111100000000000000001111111000000000000000010000000100000010
111111111111111100000000111111101111110011111110111111011111111011111101
000000001111111111111111111111111111110011111111111111111111111111111111
000000000000000000000001000000001111110100000000000000000000000100000001
111111111111111111111111111111101111111011111111111111101111111111111111
000000010000000100000001000000000000000100000000000000000000000000000000
000000010000001000000001000000001111111100000001000000001111111100000000
000000000000000100000001000000001111111100000001000000010000000100000001
111111111111111111111111111111111111110111111111000000001111111111111111
111111110000000011111111111111111111111011111111111111101111111111111110
000000000000000000000000000000001111111000000000000000000000000000000000
000000010000000100000001000000010000000100000010000000100000001000000010
000000010000000000000000000000011111111000000001000000010000000100000001
000000010000000000000001000000010000000000000001000000010000001000000010
000000000000000000000001000000001111110100000000000000000000000000000001
000000010000000000000001000000011111111000000001000000010000000100000010
000000000000000000000000000000000000000000000001000000010000000100000001
000000000000000000000000111111111111110111111111111111111111111011111110
000000000000000100000001000000011111110100000001000000010000000100000001
111111111111111111111111111111111111111111111111000000000000000000000000
000000001111111111111111000000001111111011111111000000001111111111111111
000000010000000000000000000000000000000000000000000000000000000000000000
000000000000000000000000111111110000000111111111111111111111111111111111
000000000000000100000001000000000000010000000001000000100000001000000010
111111101111111011111110111111011111010011111101111111001111111011111110
000000000000000000000000000000000000001000000000000000000000000000000000
000000001111111111111111111111111111110111111111111111111111111111111111
000000000000000000000000000000000000001100000000000000000000000000000000
000000000000000011111111000000001111111111111111000000001111111111111111
000000001111111111111111111111111111110111111111000000001111111100000000
000000000000000000000000000000001111111100000001000000000000000100000001
000000000000000100000001000000001111110100000001000000010000000100000001
111111111111111111111111111111111111110011111111111111111111111111111111
111111111111111111111111111111110000000000000000111111110000000000000000
000000000000000000000000000000000000000000000000000000000000000000000000
000000000000000000000000000000001111111100000000000000000000000000000000
000000000000000000000000000000001111110100000000000000001111111100000000
111111111111111111111111111111111111100111111110111111111111111011111110
000000000000000000000000000000000000010100000010000000000000001000000010
000000000000000000000000111111111111110000000000000000000000000000000001
111111111111111111111111111111111111101011111111111111101111111011111110
000000000000000000000000000000000000000000000000000000000000000000000000
111111111111111111111111111111111111101111111111111111111111111111111111
111111110000000000000000111111110000000000000000111111111111111111111111
000000000000000100000001000000010000011000000001000000010000000100000001
111111110000000000000000000000000000000000000000000000000000000000000000
111111111111111000000000111111111111101011111111000000001111111100000000
000000000000000000000000000000001111111100000000000000000000000000000000
111111110000000000000000000000000000001100000000000000000000000000000001
111111111111111100000000111111111111111100000000111111111111111111111111
000000000000000100000001000000010000011000000001000000010000001000000010
000000000000000000000000000000001111111100000000000000000000000000000000
000000000000000100000001000000010000011000000010000000010000001000000010
111111101111111011111110111111101111101011111110111111101111111011111110
000000000000000011111111000000000000000000000000111111110000000000000000
000000000000000000000000000000001111111000000000000000000000000000000000
000000000000000000000000000000000000010100000001000000000000000100000001
000000000000000100000001000000000000001100000001000000000000000100000001
000000000000000000000000000000001111110011111111111111111111111100000000
111111111111111111111111111111111111111011111111111111111111111111111111
111111111111111111111111111111111111110011111111111111111111111111111111
111111111111111111111111111111111111110011111111000000000000000000000000
000000000000000000000000000000001111111100000000000000000000000000000000
111111111111111100000000111111110000000100000000111111111111111100000000
000000000000000000000000000000000000000100000000000000000000000000000000
000000000000000000000000111111110000000011111111000000000000000011111111
111111111111111111111111111111111111110011111111111111111111111111111111
111111110000000000000000000000000000001000000001000000000000000100000010
000000000000000100000001000000010000011000000001000000010000000100000001
000000000000000000000000000000001111111100000000000000000000000000000000
000000000000000000000001000000000000001000000001000000010000001000000010
111111110000000011111111000000000000001000000000111111110000000000000000
111111110000000000000000000000001111111000000000000000000000000000000000
000000000000000100000000000000000000010100000001000000000000000100000001
000000000000000100000001000000010000011000000001000000010000000100000010
000000000000000100000000000000000000001100000001000000000000000100000001
000000010000000100000001000000010000011000000001000000010000000100000001
000000000000000000000000000000000000010100000001000000000000000100000001
111111111111111111111111111111111111101111111111000000001111111100000000
000000001111111100000000000000001111110111111111111111110000000011111111
000000000000000100000001000000010000010100000001000000010000000100000001
000000000000000011111111000000000000001100000000111111110000000011111111
000000000000000000000001000000000000011100000001000000010000000100000001
000000000000000000000000000000001111111100000001000000010000000100000001
000000000000000011111111000000001111110000000000111111111111111100000000
000000000000000011111111000000001111110111111111111111111111111111111111
000000010000000000000000000000010000001100000000000000000000000100000001
000000000000000000000000000000001111110100000000000000000000000000000000
000000001111111111111111111111111111011111111110111111111111111011111110
000000000000000000000001000000000000010100000001000000000000000100000001
000000000000000000000000000000000000000000000000000000000000000000000000
000000000000000000000000000000000000000100000000000000000000000100000001
000000000000000000000001000000010000010000000001000000000000000100000001
000000001111111111111111000000001111101111111111111111111111111111111111
000000010000000100000000000000010000011000000000000000000000000000000000
111111111111111111111111000000001111110011111111111111111111111111111111
000000001111111111111111111111111111110011111111111111111111111111111111
000000000000000000000000000000000000000100000001000000000000000100000001
000000000000000000000000000000000000000100000001000000000000000100000001
111111111111111111111111111111111111101100000000111111111111111111111111
000000010000000100000010000000010000110000000010000000100000001000000010
000000000000000000000000000000000000000100000000000000001111111111111111
000000000000000011111111000000000000001011111111000000000000000011111111
000000000000000011111111000000001111101100000000111111111111111111111111
000000000000000000000000000000000000000000000000000000000000000000000000
000000000000000100000001000000000000010100000010000000010000001000000010
000000000000000000000000000000001111110000000000000000000000000000000000
000000000000000000000000000000001111111000000000111111111111111111111111
000000001111111111111111111111111111110011111111111111110000000000000000
000000001111111111111111000000001111110111111111000000000000000011111111
111111111111111111111111111111111111110011111111111111111111111111111111
000000000000000000000000000000000000011000000000000000000000000000000000
000000000000000011111111000000001111110011111111111111111111111111111111
000000000000000000000000000000000000000000000000000000000000000000000001
111111111111111111111111000000001111101011111111111111111111111111111111
000000010000000000000000000000010000001000000001000000010000000100000001
000000000000000000000001000000000000010100000001000000010000000100000001
000000010000000000000001000000000000010000000001000000000000000000000001
000000010000000100000001000000010000001100000001000000010000001000000010
000000000000000011111111000000001111101111111111111111111111111111111111
111111110000000000000001111111111111111100000001111111110000000000000001
000000010000000100000001000000010000011100000001000000010000000100000001
000000010000000100000001000000010000011100000010000000010000000100000010
000000010000000100000010000000010000110000000010000000010000001000000010
000000010000000100000001000000010000101000000010000000010000000100000010
000000000000000000000000000000001111111100000000000000000000000000000000
000000001111111111111111000000001111101011111111000000001111111111111111
111111111111111111111111111111111111100011111111111111111111111111111111
000000000000000000000001000000000000010100000001000000000000000100000001
000000000000000000000000000000000000001100000001000000000000000000000000
000000000000000000000000000000001111111000000000111111111111111111111111
111111111111111011111111000000010000011100000000000000000000000000000000
000000000000000000000000000000000000001000000000000000000000000000000001
000000000000000000000000000000000000000100000001000000000000000000000000
111111110000000011111111111111111111111000000001000000000000000000000000
000000000000000011111111000000000000000111111111000000000000000000000000
000000010000000100000001000000010000100000000010000000010000001000000010
000000000000000000000000000000001111111000000000000000000000000011111111
000000000000000000000000000000000000000100000000000000000000000000000000
000000001111111111111111111111111111101111111111000000000000000011111111
111111111111111111111111111111111111100111111111111111111111111111111111
000000000000000000000000000000000000000100000000000000000000000000000000
111111111111111111111111111111111111101100000000000000000000000000000000
000000010000000100000001000000010000101100000001000000010000000100000001
111111110000000000000000000000000000011000000001000000000000000100000001
111111110000000000000000111111110000100000000001111111110000000100000001
111111110000000000000000000000001111111011111111111111111111111111111111
000000010000000000000000000000010000010100000001000000000000000100000001
000000000000000000000000000000000000001000000000000000000000000000000000
000000000000000000000000000000001111111000000001000000000000000000000000
000000010000000011111111000000010000001111111111000000010000000100000000
000000000000000100000001000000010000100100000001000000000000000100000001
111111110000000000000000000000001111111100000000111111110000000000000000
000000000000000000000000000000001111111100000000000000000000000000000000
000000000000000000000001000000000000001100000001000000000000000000000001
000000010000000100000001000000010000101100000010000000000000000100000001
000000000000000100000001000000010000110000000010000000010000000100000010
000000000000000100000001000000010000101100000010000000010000000100000010
000000010000000000000000000000000000011000000001000000000000000000000001
000000000000000000000000000000010000001100000001000000000000000100000001
000000000000000000000000000000000000011000000001000000000000000100000001
000000000000000000000000000000001111111100000000000000000000000000000000
000000010000000100000001000000010000100100000001000000010000000100000001
000000000000000000000000000000000000011000000001000000000000000100000001
000000000000000000000000000000001111111000000000111111110000000011111111
000000000000000011111111111111111111101011111111111111111111111111111111
000000000000000000000000000000001111111100000000000000000000000000000000
000000000000000100000001000000000000100000000001000000000000000100000010
111111110000000100000000111111110000011100000001111111110000000000000001
000000001111111111111111111111111111101011111111111111111111111111111111
111111111111111111111111111111111111110111111111111111111111111111111111
000000000000000000000000000000001111110011111111000000000000000011111111
111111111111111111111111111111111111100111111111111111111111111111111111
111111110000000011111111111111111111110000000000111111110000000000000000
000000010000000100000001000000010000100000000001000000010000000100000001
000000010000000100000000000000010000100000000001000000010000000100000001
000000000000000011111111111111111111110011111111111111111111111111111111
000000100000001100000000000000100000100100000000111111000000000011111101
000000010000000100000001000000010000010000000001000000000000000100000001
000000001111110111111110000000100000001111111101000000010000000011111111
000000000000000000000000000000000000011100000001000000000000000100000001
111111111111110111111101111111101111001011111011111111101111110011111100
000001000000001011111101000001010000001111110101000000101111110011110101
000000100000000111111101000000010000001011111001000000010000001011111100
000000011111111011111111111111101110111111111011111111111111110111111100
000000000000000000000000000000000000001000000000000000000000000000000000
111111111111111111111111111111111111110111111111111111111111111111111111
000000000000000011111110111111111111110011111110111111101111111011111100
000000000000000000000000000000001111111111111111000000001111111111111111
111111111111111111111110000000001111111011111111111111111111111111111111
000001000000001111111101000000100000011111111101000000000000000011111000
111111110000000100000000000000010000100100000011111111110000001000000010
000000010000000100000001111111111111011111111111111111111111111111111111
000001100000000100000001000001011111101011111101000000010000000000000000
000000000000000000000000000000001111111011111111000000001111111111111111
000000000000000100000000000000010000100000000010111111110000000100000010
000000100000000100000001000000001111110111111111000000010000000011111111
000000010000000011111111111111111111011111111101111111101111110111111101
000000010000000111111110000000010000000111111001000000000000001011111100
000000000000000100000001000000010000100100000011000000000000000100000011
000000010000000000000000000000001111101011111111000000001111111111111111
000000001111111011111110111111111111100111111011111111111111111011111100
000000011111111111111111000000001111110111111110111111101111110111111101
000000000000000100000000000000000000010100000010111111110000000100000001
111111110000000000000000000000000000011000000010111111110000000100000010
000000000000000100000001000000010000011100000010000000000000001000000010
000000000000000011111111000000000000011100000001000000000000000100000001
000000000000000111111110111111110000001011111100111111101111111111111100
000000000000000000000000111111111111110000000000000000001111111100000000
000000010000000000000000000000001111101000000000000000001111111011111110
000000000000000100000000000000010000101000000011000000000000001000000011
111111111111111111111111111111101111001111111101111111101111110111111101
000000000000000000000000000000000000000100000000000000000000000000000000
000000000000000000000000111111111111111011111111111111111111111111111111
000000011111110111111110111111101110011111111001111111011111100111111000
000000010000000000000001111111101111100011111111000000001111111100000000
000001010000001111111111000000111111111111111100000000111111110011111100
000000010000000000000000000000001111111111111111000000000000000011111111
000000000000000000000000000000000000001000000000000000000000000011111111
000000010000000100000001000000000000000000000000000000001111111100000000
000000000000000000000000000000001111111011111111000000001111111111111111
000000010000000000000000000000001111101111111110000000011111111111111111
000000000000000100000001000000010000100100000010000000000000000100000010
000000010000001000000001000000100000110100000011000000000000001000000010
000000000000000000000000000000000000001000000000000000000000000000000000
