0000000000111110
0000010111111000
1111101110011010
0000001100101110
0000010111011000
0000011001110100
1111100010100011
1111101010111001
1111110101001000
1111101011010010
1111101001110010
1111100011001111
1111011101001000
1111100000011010
1111110110111000
1111100110011100
1111110011001110
0000000010001100
0000010000010011
1111110010001010
0000010100010100
0000100101110100
1111100110000001
0000101111000000
0000010100010110
0000010001111011
0000001011101110
0000100010101000
0000100111111101
1111101100101011
1111010100011100
0000001100101001
0000000111101010
0000001100100101
0000000101001010
1111011001001111
0000010000101000
1111011101111100
0000010010101000
0000011001001100
1111110000010111
1111101100101010
1111111111110000
0000000011110111
0000011100001110
1111111000010111
1111111100111010
0000001110011000
0000010110100111
0000000110101000
0000000011001101
1111101110000000
0000110010111101
1111001101000110
0000001011111010
1111111110110011
1111011101011001
1111100101001110
1111101000110011
1111101011010111
0001001000101101
0000011010000001
1111101011111110
0000001000110101
0000001111111100
0000010001000001
0000011001010110
0000010110000001
0000011110100100
0000100010001111
1111110110101000
0000000101111011
1111011111101111
1111111001010101
0000100101100000
0000000000010010
1111101001111000
0000001010110001
0000001110000001
0000011011010110
0000001010100101
1111101111000000
1111010001000001
1110111001010100
0000001110000001
0000100101100100
0000000110111100
1111101000111000
1111100101111111
1111100101011001
1111110000010100
0000001000011110
1111010000011010
1111101101001100
0000011011011000
1111110101001000
0000001000101010
0000011110011011
1111111110010101
0000011100111010
