11110010111111111111001111111111000100111111101111111110111101111111010111111100111101001111110011110000111100111111010000000110
00001110111111111111110100000010111110110000010100000010111101010000100000000100111110100000001000001101111100111111110111111010
00001010000000100000101100000001111101100000000111110110000010001111110100010111111101110000111011111010000000011111011100001101
00000000000000000000001000000011111110100000001000000010111101111111010011110101111110001111011000000000111111101111011000001011
00000100111110101111001111111011000010011111110011100100111111001111001000000100111110001111111111110100000000011111110011111101
00000011000000000000001011110001111111011111110011111100000001101111010111110000111101111111111011110000000010000000000000000000
11111000111101101111101111111000111111001111100000010101111101001110110100010011000001011111110011111010111101001111010000000001
11111100000010011111110100010110111111111111010000000010000001000000000011111010111111001111110011110011000001000001001011111111
00000000111101100000000011101111111111111111100011111010111111101111111111110101000010000000000111110110000000100000100111111010
00001001111011101111110111111111000010110000001100011101111101101111100000000110111111101110111100001010000001011111011000011000
00011001000000000000100000001111111110111111100011111101000000010001111000000011000010011111011011110110111110010000000011111000
00011011111110000000101000000010111100110000111111111100000011011111010011111010000100011111000000001010111111100010000111111000
00001001111101101111011011111010111111101111010100001111000010101111001111111100111110000001000011110001111111011111111000001000
11111001111101100000000111111111111101111111111111111010000000101111001100000000111101011111011111111110111101101111111000001101
11110000111111101111011011111111111110011111100111111000111101101111010011111001111101011111010000010000000000100000110000001000
11110000111110111111001100000111111111001111110111110000000000100100010000001010111110011111001100000000000000100000101111111110
00000000000011101111111100000110111100011111000111111011000000110000010111111000000000100000001000010011111110011111111011111000
11111010111110111111111111111100000001100000111100000010111110110000011111111111000001011111111011111011111111111111110011111010
00000111111111110000010011111000111111011111110111110100000000111111011011110110111111111111101000010000111111110000001011110110
00001100000001011111100111110100111101001111000111111111111110111111001011111100111110100000000111101110111111000000101111111011
00010011000100101111101100010001111110111111001011111110000000110000010011111100111100010000000011101110111100101111111111111111
00000101111110001111000111111011000010011111000000000001111111001111011100001010000001111111111100000110111101111111010011110001
11111110111111000000001000001000111110000000000011110100000001011110111100010001000011100000001000001101111111001111000100001110
11110100000001110000101000010110000101010011000011110101111110110001001000001001000000100000111100101111000000010001000011101000
00001010000001011111110100000110000000110010000000011001111111011111101000001001111101010000110111111100000001011111011100001011
11111101000001000000001011111010111101001111010011111001111111001111110011111101111101101111111111111001000000110001010000000001
11111011000001100000011111111001111110111111110111111000000000111111100111110010111101001111100100011000111111001111111011110101
00000001001010111111010100000100000001101111110011110101111011011111111100010010111101101111010011111101111111100000011100010110
11111111111111101111100011110100000010100000100011111110000011110001000000000110111110101111010111111010000010111111100011110001
00000100111101000000011111111101000011111111100111110010000011101111100111110011111110100001010111111101111110111111100111111101
11110101111111001111101111111001111100011111100011111010000000011111110011111110111101000001010000000110000001110000001111111010
11110110111100111111110011111111111101001111111011110110000001010000101011111110111111011111110011101101000011101111011000000000
00001010111100111111010100000101000010101111001000001001111111100000100011111001000000001111101111111101111110000000011100010111
00000011111111100000011100000001111110001111101100001010111111011111110111110001000010101111110011111000111110100001010111110010
11101001000000001111110011111010111110100000000011111000000000011111100111111011111111011111100111111010000010011111110100000110
11111100111110001111101100000110000001011111001000001111111110110001101011110110111011100000010111111110000000010000001011111100
11110100000011101111110011111100111110001110111111111110000000111111001000001101111101010000001011111001111111111111111000010000
11110110000000111111011100000100111110110010011111111010000001010001011111111001000011001111000111111100111111000000001000011101
11111100111011100000000011101100111100011111100100000010000010111111100011111110111111001111100111111100000001011111110000001111
11111011111011110000011000000001000011010010000100000100111110001111100100001101111101100001000111111011000010111111101011110111
00000010111111000000001100011000111110110000001000100110111011111111001100000001000000011111111111101110111101101111101000000001
11110011000000010000010111111111111101001111100111111100000000011111011111110111000011101111001111111100111100001111111111111100
11111000111101000000100111111101111110100000000111110100111011110000001111110110111111100000101011111101000001101111100111111111
00000011000101101111100111111111111100101111100011111101111111001110111000001100111111100000100111111110111011011111100011111111
00000010000101011111101011111011000001010000011111101110000100000001001000000010000000010001010111111110111111011111111111111100
11111010000100000010111100000001111101101111100011101111111100011111111100000000000001000000000100000000000000100000011011111011
11111111111110111111110011111000111110100000000111111011111100101111010000010011111101110001000111111001000010000000000111110100
00001100111111011111110000000001111100110000101000010000111110100001110011111100111111011111111011111001000010110000110000010000
00000010111111001111000000000001111101111111011100000101000000010001011000000111000000111111111111111101111011101111011111111010
00000000111101111111010000011101000001011111100111111000000000111111111000000000111111111111110000001101111110111111111100000001
11101010111110100000011111111010000001101111010111111010111100111111100100010111111111110000001111110110000101010000000100001000
11111001111110110000000100000000111101110000011100000111000000011111010111110111000011111111101100000111111110111110110011110110
11111111111100111111010100000000111111111111110111110001111111101111101011111011111110000000101011111000000010101111101011111010
00001010111110001111110111111100111100000001001100011100001010011111110011110100111111101111100111110101111101100001100100000010
00101010000010000000010011100110111111111111100111110101000100000000011100001001111110000001101111111111000000011111110100001001
11101111111110100000011011111010111110001111000000000010111100010000000011111001111011101111101000100011111110110001111111111011
00000000111011100000000100001011000010100001000000001010000010000000111000000011111001110000101111111000111101011111010000001000
11101101111110100000000100000011000000011111001100000111111111110001101100000000000010111111110000000010000001000000110111111101
00010111111101111111100100000111000101010000001100000000111110100001111100000111000000001111010011111000111101010000011011110000
00010000111111111111101000000011111100010000010111101001000101111111001111111001000101010000000000000100111110101111101011110000
11111001000010101111100100000001111110100000000100001010111111110000000011111001000010100001101011111001111100111111001000000011
11110101111101000000101100000000111101000000001111110010111100110000000000000100000001101111100100101100111101010000000000000111
00001101000001100000000000010111000000001110111111110100111110011110100011110010001000010001111111110100000001010000000011111010
00000110000010010000010111111001111111001111011011111100111101111111001011110001000000000000010000000100000000011110101011111011
00001110111101001111100011111110111110101111110111111011111110010001101000001000001001100000110111111101111110101110110100000101
11110101111101110001011100001001000011101111000111111100111100100000000111111010000000101111100100000011111111100001001011110011
00000100111111111111010011110011111100000000011000001001111111101111100111111001111111001110110011110101111101100000001000000001
11111111111110001111100111110101111111110000100011111111111110110001011111111110000001110000010111111101111011100000010111101011
00000011000011011111101111110110000100010000011100000000111110111110100000000110000001111111000000000101001010011111011011110001
00001010000100100001001000000010111101101110101111111011111111101111011011101110000010100001001100001010111110111110111011111110
11110101000010101111100011101110111110001110110111110110111111010000000000010110111101111111101111111111111101101111111111110101
11111001000000011111101100001001111110010010111011111101111111000001100000001001000011110000010100000110000001100000010111110110
00000000000000001111011100000000001001001110110011111010111110011111110100010011001011000000001100000010000001001111010011111000
11110000000011111111100000000110000011100000001111111001000010010000110000100011000100001111011011111101111101110010001111111100
11110110111101100010010111110101000011001110110000000101111110011111010100000101111101001110111100001100000110011111001111111010
11111110000001100000001100000001111111001111110111111101111111001111101000000010111100111111011000000100111010110001000100011011
00010110111101001111111111111011111101011111110000001000000001011111010111111101111111000001000111111111111101101110110111111100
11111111000101101111101000000001000000011111101100001100000100011111101011101011111100100000011000000000000011100000100100011011
11111100111101101111010111110111111111100000001011101001111111011111010011111101111100010000010011111110111100111111000011110100
00000000111110101111000111110101000000110000000111110110000001100000001011110111111111011111010111110001111110010000101100000101
00000101111011100011000111111110111001111111111111110010000001101111110011111001000100001111100100001000000000000000111111110001
00000010111000000000101000001001000011011111010100000111000101110000001100010101000000001111010011111011000010111110100100001001
00010000111110110000001111110100000001011111101000001000001001001111101111101111111101010000001111101110111110101111101111111110
00001100000100000000001100001110111111011111000100010101111111110000101100000111000000111111011000000010111111100000000100010010
11111000000011101111110011110011111111111111011111110100111101101111010100000101111101001111111000000011111101100000100011110001
00000010111101111111100111111000000001100000111111110000111101100010010111110100111111011110101111111111000000011111111111110010
11101100000011110000100100001111000000000000110011110001111101111111010000111010000000111111011111111001111111001111000000000010
11111001000011101111100111110110111111001111110011111101111110110001010011111011000000000000011100001010111011100000100111111010
00000110111111011110101111111001000001100000011111111100111111010000011011111000111111001111011011111111000001010000101100100000
11111000000010111111111100100110111011101111010100000000111110111111101000011011111100111111110011111110111101110000010111101110
11100011111011110000001000001101111110110000011000001000111101010000000011110011111110100000010100100001000100011111001111111001
11110000111111111111110111110110111111010001001011110110000001001111011111111101111110110000000011111110000001111111111000001101
11111000000111111110100111111101111101101111011011111101000100110001010011111110000000001111011000000101111100010000100111111011
00000110000000110000010000000111111100100000011011100111001000011111010111111100111111111111100000011000000000001111011000000100
11110100111111001111110111111110111110001111011100000001111011011111111111110101000000000000000100001010111111100001010111110000
11101111111111100001011011111100111101001111100011101100000010001111101111111111000100101111101100000000000101101111011000010011
11110110111110001111101011110000111101101111010011111101111110010000110011111101111110111111101111111011000000010000101000010111
11101110111110001111100000001010111100101111111111110011000001111111111011111001111101101111110011101101000001001110111111111001
00000110000001001111100100100101000000001110011100000110000010010000010011111000111101110000110100010001111110111111110100000011
00000011000010011111010011111000111111010011001111110001001010011111110000000001000110000000000000000000111110111111001000000110
11110101111101011110010100010000000001000000001011111011111101010000100000001001000001110000000011110110111011101111000100010000
00000001111110110000000011101111000000001111011011101101000001101111110100100101000010000000000011110101000001010000000011110011
00000000111100110010101100000010000000110001010011111101111011000000110111110110000001001111011111110000111110101111110000000101
11110001111111111110010011111101000001001111011000000001000011011111100011110000111101010000010100000111111110101111111100000111
00001101000110010001000011111011111101010000111111110101000011000000101011110001000001011110110000001100000011100000011000000011
00000011111101110000100100001111000000001111110011110100000010001111110000000110000001011111011100000100000000011111100011110110
00000001111110100000011000000110000000100000111011111010001001100000010111111110111110001111111111111011000000101111011011111100
11111000000011001111001100000100000110000000010011101110111100001111000111111000111100011111000011110011000000001111100100001010
11111101111110101111101100000110000000011111001100001101111110111111011111110001000111000001101000000000111101100000001000001010
11110100000011001111111000000100111110010000000111111100111111001111001100000110111111100000110111111110000000110001001100011111
11111111111110011111101011110111111110001111111100000010000101101111111111110001111101001111001100000011111110000001001011101111
11111111111110100000110111111111111110001111010111111100000001010000011011111011111100010011101100000111000000010000000011110000
00100111000001100001010100000010111101100000010111100111111111011110101011111110000000011111111000010100111110001110110100000011
00010100111100011111001100001111000000000000011000000000111111000000001111111101111111011111110011110011111100010000110000000100
11110101111111101111010111110101000100100000110000000000000100011111110100000001000101001111110111110100111001111111111111110111
11111011000000000000010011110010111011110000010111110011000010101110101111111111111010101111111100010000000011101111101011111011
11111000111110011111110100000110111111101111111100000001111101000000000000000001000101101111110011111010111101111111010011111000
11111111111101110000001111110010000001000000110111111010111101000001001111111111001000111111101011111000111111101111101100000101
00010001111101000000010100011100000010111111101100011100111110011111111100011101111101110000001000001001000001000000111100010001
00011000000110101111101011101011000000011111111000001100111110111111010011111100111110100000000111101110111111101111001100000000
11111001111100000000110111111100111100111111010111110001111010110001000011110010000010111110110111111111000001010000101000000010
11111110111101111111110100000101111101010000101111111001000100101111101011111111000010001111111111110101111110111111001100010100
00001000000101010000101000010011000100001111100111111110000001010000011111111011111101000000001111110010111110101111111000000001
11110101111111100000011000010101111111011111111000001100111100010001000100010110000011001111110100001011000010110000101100000010
11110110111111100000010011110100000001010000110000010000000100001111100111111010111111111111011111110100000000001111000111110101
11110101111111100000000000000101111100011111010000000011000001111111010111110101000110101111001000000001111110001111101000001001
11110011000100001111110111111110000001001111111000100100111110101111010000001001001111000000111011110111000101101111110111111100
11111001111001111111111100000011111100011111101111110110111100001111010000101000000001011111110011111000000001100000100011111101
00000011111011011110101111101111000000110000010100000011111101110010001100010101000000101111001111111111000010000000000011111001
00110000111110000000011100000100111100100000001011111100000000111110111100000101111110011111100000000010000110010000000000000111
11111010000011001110110000001100000001110000110011111100111110100000000000001011001010011111001111111001111100100000010100000110
11111010111101101111110111111010000010001111110111111001111011111111110000010000000000001111001111101110000000111111010100000011
00011000111101011111110111101111111111100000100000000000000100111111101100001010111010101111011100000111111111110011001011110110
11111001000101000000001000001100111110110000011000001000111011111111001100000001111110100001100100001100000010110000011000001110
00010010111110101111000000000001000101010000110011110101000000110001000000001101000001001111100111111010111111000000000111111110
00001010000111111111101011110011111111101111011100010110111101110000110111110110111111011111101111111011000011011111100111111101
00001000000011011111101000001100000011111111000000000011111100011111101111111000111011100001011100010000000011000000101100000000
00001000111111111111111000001100111111101111111011110001111111001111111000000101000001011111110111101101000001101111001100010110
11110101000011101111101000000011111101110000001011111010001001011111011011110100111100000000001100001110111100011111011111111011
00001000111111111111101000000101111101101111111100000000000000111111111011111111111101001111100000000110111011101111100111111001
11110011000000010000011100000000000011011111100111111100111101110000001011110110000011101111101011111000000001000000100000001000
11111110111101011111111011101110111111001111010100000100111111110000011100000000000001011111101011111001000000000000100011111000
00110000000000000000011000000110111111100010010000001000111111110000001011111011111110111111101100011101000001101110111011110000
11101110000000001111010100001111111111011111111011111011111100010000101000000101111101000000001111111110111010111111010011110110
11110001111100000000111111111010000001000000010111110101111101000000010011110111000001011111100111111110111100100000000000010101
00001100111110110000010000000110000110100001001011111111111111001111101100000010000001011110111111110000111101100000000000001101
11110111000010000000000011111100000010111111101100000101111100001111111011101010111101001111111100001011111101011111000000000011
00001011111110000000111000001111000100010001000111111000111111100000100111101110000001101111010011111001000001101111100011111101
11110110111111010000010100000011000000000001111011101111111100100000101011110001000000110000011111111100111111111111101011110100
11111100111100011111001011111010000000100000001000000000111100100000101111111011111100100001101000000010111101100000010111111111
00000101111011111111111011110111000001001111000011110010000000010001011011110111111110010000100011101101111101100000111111110100
11110010000101110000100100001001000001001111000100001100111100110000000000000000111100111111001100000010111111011111101111110111
11100011111011110000000011111101001011010000000100000011000000001111001100010001000000101111110111110110111110001111110011111010
00000010000110011111100100000110111101101111011011110100111110000000011011111011111101011111011111111100000100110000000111101010
00001100000001011111111011111001111011110001100011101101000010101111010100000010111011001111011000000100000101100000011100000011
11111000000010010000001111110111000000000000000111111100000000111111010000000111000000000011000011110001111110001111100111111010
00000001111101000000100011110111111101001111011100010010000000100000101100000010000001111110011000001100111110111111110011111010
11111010000011010000000011110000111111010000100000011001000000100000001100110100111011111111101100000001111111111111001111110101
11111111111111011111000000001011111101110011011000001001000000000000111100011011111111111111011100000010000101110001001000011011
11101110111111011111100111111101111101110000011111111011000001010000100000110000000001100000111011101011000101011111100011111010
00000011111110100000001111110011001010001110100011110100000000110000111100000111111111111111001100001001111011111111101111101011
00001011111110010000110100010010000010010001000111111011111111101111001100100010111101110000011011111101111011110000111000000011
11110011111101011111101011111011000000101111110000010110111111000001001100001010111101011110111100001101111101100000001000001110
00000001111011001111110100000110111100011111100111111101111111000000001111111000111111101111110000000011000101011111101011111100
00001111000011000000110000000011111100100000110011101111111101100000100000000100111110011111001111111000000101111111101000000101
00010001000001010001000111111010111111011111110011111001000000011111111000000001111111110000101011111111000000111110111011111011
11111100111111111111010111101011001001010010000111100011000000000000110100000011000101100000001011110110111111110000110000000010
11111000000000011111111000001100000011000000011011110101000000110000010000000110000000100000110011111100111101111111010000001001
00000111000001000000110011110011000100101110100011110000111010111111110000010010111100101111011000000100000010001111001100000111
11111010111111000000010111110100111101101111100111100100111010111111010000001111111111101111101100000001111111011111000000001111
00010000000010001111100000000101000011001111011011101101111110110000010011110011000001111110101100001011111101011111011100000010
00011111000000001111110000000011111111010000011000000010111110011111101111110011111101110000011011101101000011001111101011111111
11101111000000000001010100000011111010111111101000011101000000100000101011111110111011110000010100001100001001110100011000101100
00001100001011001110010100000011111111111110111100000011111111111111001100000111111101001111101000000111111011100000000111101000
00000111111111001111010000000001111101001110110100000000111100100001011100000001111110001111101011110100000000000000001011111100
00001010000100011111000100000011111100000000011011111110111110010000011111111011000000101111110000001001111101000000101100000011
11101110111101101111110011110011000100011111111100000000001001000000010111101111000011110000000111111010000001111111110011111101
11111000000111110001001011111010111110111111110100000010000010111111011000000000111100110000011100000100000001010000101100011110
11111100000110001111100011111101111110010000010111110101000011111111010011110101000001110000001100000100111110101111111111111111
00001000111011010000010100001011000001011111010000001010111110000000000011101110111101100000110100001101000001100001110100010101
11101000000001011111101000001001000011110000000100100101111110010000110100010000111111110000000100000101000011100001000100000110
00000111111111001111101111110101111111110000010111101001111100001111111000000100000001011111100011110010000000101111101011101100
11111111000011001111001100000010111110100000000011110101000010100000100000001010000011100000001100001111111111011110111000100011
11101101111101100010011011101111000000010001111111111011111111010000000000000001000001001111001000000110111110001111110000001101
11110000111011010000010100001011111101101110101000001001000000111111001011111101000000011111011111110000111110001111100000010010
11110001000000011111101100000011000100110000010011110101000000101110111111101000111100110000100000000010000000100000111100000010
11111011111110111111100011110101000010000000110111111110000000101111111100000001111110000001001000000000000000111111101100010001
11101110111011000000100111101011000101000000110000100000000001011111111111111011000010001111100111110010111111001111111100000001
00000001111110011111100000001011000000000000000000000011111111011101101011111000000011000001110000001010000100111111001100001001
11110111111111010001010011111110111111110000000100001000000001110000010011111011000100011110011011111110000110000000000011111010
00000010000111100000011111111100000011110000000011110001000001101111011011111010000101000001100000011001000111100001010100001101
11101010111010100000001000000001000000110000101000000001111010010000010100001010111101100000100000000110111100011111101011110110
00000110111110010000011111101110000010101111100100001000111101010000000000010100000001001111110011111010000010100000011100001101
11111001000010010000001000000001111111011111100100010010000001100000000100001001000001010000011011110110000010110000101011111010
11110101000010011111001000000100000000100000100111101110000000010010011011101010000000010000101000000001000010100000010100000100
00000001111101001110101011101000000011110001001100000000111110110000001111110100000010111111111111111011111001000000111100000110
11111001111110001111011011110011000000111110011100000000000001000001001011111011111101010000110111111000000001000000010000101110
11111001111101100000011000011111111100110000011011110000000010000000010100001011111110010000010011101111000011011111011100010011
00001000111000101110100000010001000011110000011111111111000001011111111000001101111110010000010100000111111110000001011111110101
11111100000100101110110011111111000110101111001011110110000010010000111011111100000011110000101111111101111110001111111111111100
00001000000001110000111011111001111111010000001011111101000111010000110111111101000000010000000011110111111101100000110111111000
11110000000001110000010000000011111101110000000011111011111100100000001000000011000010001111111000101001111101101110111100000100
00010001111110111111100000001110000100000000011111111111000000011111000011111100111110010001101011111000000001000000110111111100
11111011111111000001010111100000000011101110010000001100000001100000011011111001000111000011010111101010000010000000000011101111
00000101000000101111110011111100000010111111100100000010000101110000100111111000000010101111001000000101000011100000011000000000
00001001111101100010100100001001000000111111111000000100111101000000001111111100000100001110111000000001111101100000110011111101
11110110111100100000001100001011111111101111000011111010000101101111111111111101111110100000101011111011111111011111111100000000
11111001111011010001001111111101000010011111100000011000000001001111110011111101000010101111001100010101000000010000101000000011
11111001111110000000000011110010111100011111001100010001111011111111110011110000000111000001001000001000111011110000001111111000
11111001001011100000000111110110111100000000001111100111001010001111011000001111111101010000001011110011000011001111100100000100
00010000000001100001010111110001111101110000100111110000111111101111101111111011111101010000100011111001111100110000001111111010
00011010111111110000000011111110000001100000001100000111111111010000001011111111111011111111010011111001111110110010010011111101
00000110000110110000010100000111000001011111111000000011111100010000011100001100000100101110110100001011111111010001010000001100
11110010111111011111011100010000000000111111111111111000000010101111111000010000111101111110110011111001000110001111101000000010
11110011111011010000000011111001000011100001001011111100111101010001111011101011111011101111001000000001111111101110110000000100
00000101111011111111011111111010000000101111010100001011000001000000011000010011111110111111010111110100000001111111101011110100
00101101000001100001011000000101111110000000000100010000111110100000111111111010000000101110010111101011111110000010001100001000
11101110111110110001101111110110001000111110100011110101000111110000100011110011111111011111111100001001000001000001100100000011
00000110000000011111011000000001000000010010001111110000111111000000010111111111000000000000011111101110000000111111111000010101
00000101000010010001101011110100111100111111111011111100111111101111001100000011000011101111111000000000111111100000110100000101
00001011000010110001101111110110000010110000101111101110000000110000101000000000000011000000110011111011111110100000011011100100
11110010000011000000001000000110111111100000001011110001111101111111101011100010111001010000001011110000000010100000011011110110
11111001000000010000000000000110111111111111100111111010111111100000010000001001111011100000110011110100000001100001011011111010
11111010000001001110111011111101001001010000000011111101000000111111000011110101000110110000001011111101000000111111101011111101
11101111000100001110110011100110000100001111010011110011111111110001100111111010111101110000000011110011111110110000011111110010
11111100000000100000011100000001111111001111111011110110111110100000101011110111000000011110111011111111111110001111011100010100
11111100000001011111110111111010111111111110110100000011111111001111011111111000000000110000000000000001111100111111110100000001
11111101111101011111100011110010111110011111110011110011111111011111000100011100000010011111100000000110111110100001101100010111
11111111111101000000100111101101000011001111000100010001000000110000100000001011000011010001110100001000111111000001010000000011
11110111111101111111111100000101111111100010011111110111111111111111100111111111111100100000100100000010000000101111111011110100
00001110000000100000001100001101000000110000000000001110111101111111001100010010000001001111111100000101000101011111010000000101
11110110000011011110111011110101000000010001010011111010111101100001110011111010111110000001000100000110000001101111111111111111
00000010111111111111011100010000111011101111011000000001111011010000101000000011111100001111000100001111000011111111101011111010
00000111000100111111110011111011111100100000100111110111111011101110111111111100000010100000011111111011000100100000110000001101
00001001111110101111100111111111111100111110110100001001000000110000110000010011111110001111101000001101000000110001000111111100
00000101000011000000100000000010000001110000010011111011111101101111101000001010111100010000000111110110111001000001010100011010
11110100111100000001011011110100000000101111111011110101111100111110111011111011111110000000001011110101000010111110110111110011
11110001000001011111010100001010111110010000011000001101000000011111010011101111111111100000100111110001000001011111111011110111
00000011000000111110010100001101000000110000000111101100000000000010011011101101111111011111101111101010111100111111011100010000
11110101111011100000100011111010111111011110111000000000000001011111010100001010000011111111110011111000001010111111110111110111
11111010000011011111010011100101111100111111001100001011111011110001000111110100000001001111101011111101111111111111011011111100
11111101001001011110110000001101000000101111110111110101000000010000100011111000111101100000100111111110111101111111110000000101
11111101111100010000111111110111111110011110110000010101111101110000000011111000000101010000010111111010111100100001011100001110
00000100000100100000001111111111000000000000001000001000111101100001010100000111111110001111101100000101111101110000110000011000
00000011000001110000011011110100000001110000010111111110111100001110110100010101000011010001001100010000000010111111011000000101
00000011000000010001001100001001111101001111110111111110111110001111100100001111111101101110111111111110000011011111011111110011
00001001111110000000110111110010000001110000011011110010000110011111101111111010000010011111001011110111000011100000101111111110
11110111000010110000010011110101001000001111010111101010000000101111111011110011000001111111110011111000000111010001101011110000
11111110000100101110110111111011000000111111101011110100000010110001011111111010111110010000001100001101000000011110111100000110
11110101111111010000001111101100000001010000010111111011000100110001011000000100000000000000000100001100000100100000011000000110
00001110000100011111110111111100000011011111010111101110111100010000011111110011000001101111000011111001111010000010000011111111
00001111000011001111011100000010000001111110101111111010111110011111110011111100111101010000001011111111111111100001010011110111
00000001111111010000000111111000111111101111110000001100000011011111100100000010111111011111111011110011111100111111000111111110
11110011000000001111011100001011111010111111000011100111111010100001001000010100111110010000010111111111111111011110111111101111
00001110111110101110111111101110000011111111111011111100111101001111111100000111111100100000001100011100111111111111111000000100
00010100111100010000010100010001000001111110100011111111111110101111100000001001000100010001010111111000111111011111111111111011
00000010000000011111000100001011000000001111010111101010111111000000001011111000111011011110100111110010111010000000111000001101
11110011000010001111010100010001000001010000010011111010000100111111010011110011000001110000111111101010111111111111001100010100
11111000000001101111111011111011000110100011101100001010000001011111011100001001010000101111111111110000000011000001011100000000
00011001111111001111010011101101000100110000010111110110111101100001001000001110000011000000110011110010111100111110110011110111
11110000000010111111111111101001000010000001000100001110111011101111011111111001111100101111011111111110111101110000000011111111
00000100000001110000000111111100000000110000001000001100000001111111100100001111000001000000001011111100000001000000100011111000
11111101000011000000000000001101000000101111010100011011111101010001111011100011000010010000100011110011000101101111110000011001
00001001111100000000100100100101111011011111111000010011000011100000010011101101111110011110100111111011000000110000001011110110
00001110111111101111000111111001000001000000110111111101111000101111011100010010000110001110110111111101001001001111111000111100
11111001000011010001000100001011111011111110101111111011111110000001111000000100111111111111001111101100000011001111100011101011
00000111000000110000010111111011000000110000000011111110001011110000010011110000111010100001100011111000000010010000110000101101
11101101111111011111100000000011000001101111110000000110111110001111010111111010000100010000010100100100111101001111110011111000
11111110000000001111100100001010111001110000010111110011000011000000001011110010111111100001011100000100000001011111100111110110
00000001111110101111011000000111111101111111011011110010111111010000010011110000111111001110001000010101000011100000000000011000
11111111111110100000110000000011000011010000001111101101000010010000110011111110000000111111101100000110111111011111101111111000
11011110111111111111110100000000111110011111001000000010111111010001101011111110111111000000000100001101000001110010011011110101
11110110000000000000111011111111000011101111100011111000000000000000001100000111111111001111010100000011111111001111110100001000
11111000111111011111101100001101111100010001101111110110000001001111000011101110000001011111011100000100111111100000000100000010
00001011000000000000001000000100110110110011001111111001000111111111100000010110000001101110111011110110000000010001100000001001
00000111000000011111001100010110111111100000010000000011000010001111110000000011111100001111100111111111111110000000111011101110
00010011111011011111110100011110000001001110110100001011111111101111110100000110111111101111000011110011111110010001010011110011
11111010000000110000101011111011111111000000010100000011111100000000001100000011000010010010000000000000000000110001011011110010
11110111111110100000011111110011111100000000000111111001000000010000001111111001000001010010011000000100001000010000110111111100
00001000111101001111001111111100111101010000011011111000000010100000011011111101000011000000100011110101111101101111110100000100
00000100000101111111101011111001000111101111100011110100000100001111101011111000111011110001010100000111111110101111111111110101
00001111000001111110110000000110000011110000111011101111000000111111001111111101111011011111100000000000000010010000001111101110
00010011111110010000100100001000111110010000100111111110000010101111110100001000000001101111001000000111000000011110111011111110
00001110000001000001000000000101000001110000110011111001111110001111111100000011000011101111001100000110111101100001100000000110
00000001000011111111110111110101000010110000101011110011111110101111000100110001000011111110010100000011000001010000011111111001
11111101000100001111100111111100000010000001101111110101111010000000001000010101111101110000001111100100111011111111011011110110
11110110000110100001010000000010111011100000011011101010000000000001101000001000111111000000000011111100111111100001011011111101
00001010000000110000010111111011000000011111110100001011000100000000000000000001111011110001011100001001000000011111000100000010
11101111000001111111000011111100000110101111111011111011000001111111011111101111111101110000101000000101111010111111111111110001
00010000111101111111110011111001111101100000010111110011000011001111101100000101000010001111001100001001111001100000100111111101
00000110111100101111110100000110111100100000011000010101000010010000110111111100111110110000110100001000000011001111001011111100
00011101000000100000100000000010111110101111100000100100000010111111010011111000001111111111111111111011000000000000100111110100
11110011000010000000000000000001000101000000000100010000111111011111110011111110111010011111111111111101000011111111000100001000
11110100111110110000001011111110000111101111110100001110111110001101110011111100111011010001110000001100000011111111100011101110
11101110111100110000111000010000000011000000011111111001111101011111010100000100111011010001010011110110111111000000001000010011
00000101111011100001010000001000000001000000001000000000111011101111110000010101111101110000001011111000000000001111011000000111
11111101111111011111111011110101111011000000011111101111000000101111111100000000111111001111111011110001111111011111010000011010
11101000000001010000011111111101111110000000110011111011111100111111111000000001111111110000000100000111000101100000010000010010
00000110000000011111111111110110000010111111111011111010111110101111010000000110111111111111110011110101000000001111011100001010
00001000000010111111100100001010111101011111010011111110000000110001011011110101000010100000001100101011111100110000110111110011
11111001111101010000111011111001111100111111110111111001111010001111111100010000111100111111100000100010111110111111111100001011
11110110000100111111111111111011001001001111110000000100000100101111010100010010111000010000010111110110111100110000001011111010
00001010000001000000100111111111111110011111011011101010000000111111001011110001000000001111110011110111000100000000101000001101
11110110000101011111100100000101111110011111101011110101000010111110100011110110000001101111110011110100000000010000111100001111
00000000111111001111101000000111000000001111010100011101111100011111000111110101111110101111101000000101111100111111110100001011
11111001111101111111110111110011000010000000000011111000000110010000000100000011111101011111011011110011111101111111001011101100
11111000000011110000010000011100000000110010110011110101000101101111000111110010000000010000010000000000000011001111110000000001
00000001111101111110110011111101000001011111100011111011001011001111011111110101111110111111000000001001000000101111101111110001
00001000000110010000011111111110111011011111110000000001000010101110110011111110000111101111100000001110111110100000101000000011
00011110111011011111101111111001000000101110111111111010001010111111010111110010000011011111001011110101000000001111111100000010
11111110111001000000000111110000111100000000001100000001111101001111100111110100111111001111010111101100111101000000011100011101
00001010000100011111001100001101000001111111100100010001000000001111100000001010000101100000010000000101111110001111010111111101
11111100111110011110110100010010111101110000000011111111111111011111111111110111111011101110111000001010000100011111111100000001
00000101111101100000011000010010000001110000101111110100000000101111110111111111000010001111011111111010000010001110111011110001
00000001111111000000011000000000111100100000010000001011111111001111001000000011111110000000101111110011000010101110110111111011
00000010000000001111011111111010000000000001100011110111000110011110101111110110111110111111111000001101000000100000111011101000
00001001000000001110011100000101000011011111001011110101000011011111100000001110000101000000101011101100000001000001011000000100
00101001000001100001110011110110111110011111111111111100111101101111000100000001111101011111010000000001000110110001101111111110
11100111000000011111010100010101000001000000010011110101000011110000001100000010000100111110110100001000000010001110100000000111
00000011111110111111010011110101111111011111111000000001111101111110110011110010000001000011000011111011111110010000010000000000
11110111000000000000110000000111000110010001000100011010111110011111000111111011000000000000110011111111111101011111110011111110
00000110111111011111010011111010000010110000111100000101000010100000111011110000000000001111110100001101111111101111011100010010
00000011111110100000101000000001000101011110101011111011000100100001010100001110111111000000010100000100000010010000100100001000
11110100111111110000110111111100111101101111010000010111111001111111111011111100111110001110111111110110111111010000101000000011
11111001000100000000110100001001000010101111000111111001000100001111111100000110000001010001101100001010111111101111001111110101
11110011000000010000110111110110111101111111100000000000111111001111000011101110111100001111010011111010111011100001100100001100
00000101111101110000101011111000000001101111111000010000111111111111011111111000111111100000001111110110000110110010010111111010
11111011111100111111000011100110000000100000010011110110111011001111011011111111111110010011010011111000111101010000010111110001
00001100111110011110100111110000000000111110101111110001111111110000110011111100111010010001001000001110000000000000010100001111
11100011000001111111001111111100111110100000010111111011000001111111100111101111111101011111110000000100000101000011001111111100
11110101111110001111001011111111000011001111100111110101111110000000111000000000000001111111111111111110000101111111101111111000
00000101000000001111011111110100000110110000100111111011111100111111101100011000111101110000001011110011111110101111101111111100
00001010000001010000001000000011000100100000101100011111111110010000010000001011111111000000000011110101111111010000000000010001
11111101000111011111101011111100000000010000101011100110111110010000010000001100000000110000000111110010111101101111111111111110
11111010111110101111010011110110111111001111011000000110111011101111110100000010111110101111101000000000111101101110101111101101
11111001000100000001101000010100000100101110111111110110111110101111000100001000111111001111110000000110111101000000001100001011
11110010000101000000010011110101111110001111010111111001000010011110111100011100111101101110110000000011111001110000010100000001
00000101111101110001010000101010111110000000010100011110000101011111110000010111111111000000000011110111111100111111001011100110
11111001000100011110101100011000000100011111100111111011111010001111111111110011000110101111001111111111000010110000000111110010
00000101111110100011000111101011111110011111001011111001111101100011000111111001111111010001010011111011111101011111000100000000
11101011111101101111010111111011000000111111110100001111000000011110110011111001111110100000100111110111111101101110101111111101
11110001000001110000000111111001111110000001000000010101000010100000010011101000001000100000011011111001111100111110111111110000
11111001111101000001001111110011111010100001011011111001110111100000011011110101111111000000000100001001000010110000001111111000
11111011000000101111100000010100000100000000110011111111111101100000010000010100111101100001001111111011000000011111101011111100
11111011000000110000110011110000111110001111010011111001000001000010111100010010000010111111111111111001000000000000010011110101
11100101000010100000010111111111000100100000110100000000111111100001100000001000000001101111101100001101111111111111101111111110
00001000000011000001100000000101000000111111011111111000000011111111111111110111111100101111011000000101111100000001000100101001
11111111000010010000101000001101111011111111111111111011111011111111000100000010111100110000000011111101000011001111101111110111
00011101001000010000000000000001111011110011010000000001111110011111111111111010111111111111101111110010000101100001001000000000
00000110000011000001101011110110000000010000100100000000000100110000100000000010111001001111001011111000111100001111111011111001
11111110111111111110101100000100111111001111000000011000000000110000011111101101111111010000001111110110000001110000110100000100
00110111000010000000110100010011000001010000000011111100111111110000010100000111000001001111101011110101111111101111101000001001
11111010000011100000001000001001111101010000010100001100111100111111001100010010111111101110101111111100111110010000011000001001
11101011111111000000101111111101111110011111110100001110111110011111110100000111000010101111111011111000000010101111100111111000
11101011111011110000001011110011111111111110110100000100000100111111100000001101111111000000100000000101000100011111101100000111
00010001111111011111101000010010111011101111011111101011000100000000000011111101111100111111000100001001000000001110110100010101
00001100111111101111111011110010111101001111111100000100000000000010000011110011000011000000011111110100000001011110110100001011
11101001000011101111111000011110111010110000100111111001111111011111011011101010111100110000011000000111000011110001001100011101
11111011000110000000110000000000111011011110111000001000000100101111010011110111000001101111111111100110000101110000010011101101
11111000111110111111110111110101001000101111101111111111000010110000111100001001111100110000100111111110111110000000111000010001
11110110000011000000010111110111000001001111011100000001000000011111000100001000000010111111000111111000000101011111001000000000
00001111000000100000010100000101000000011111110100001110111000110000001000000000000010101111010111101001000100100000111000000000
00000010111110001111110100011101111111101111101100000001000010111111101000000101000001011111001000011101000010101111001100000101
00000101111010110001000111111110000010110010011111110010000010111111011100000001000010000000010000100101111111110001010000001010
00000111000011010000010011110000000001100001010111110100111111011111000000000010000001100000101111111111111100101111010011110110
11111101000110001110100100010001111100100000000111111001111110100000000000001011000001111111111111110011111110001111010100000010
11110011111100110010101100001101111110011111001100001101001011101111100100000111111110100000011011101111111110101111000111111000
00010111111000100001110111111111111111110000001000000011111101001111111100000011000111001111000100000001000010100000001111111010
11110110111101111111000111111111000000101111010100000111111101101111100011110011111101111110010011101110000000011111111100010000
00010101111100110000001011101111000010000000001111111001111001101110111011111000000111011110101100010101111011110000010000000101
00001000111100001111100000000011111101011110111011111100111100100001010000001111000001011111111011110000111111100000100100000100
00011110000001111101110100001011111110111111100111111000000110001111011000000111000010000000001011111001111100100001101111110101
00000101111011111111101011111101111110111111101111111010111110001110101111111001000101000010000000000000111101010000011000000100
11111110111110110000000000100011000101001111101000001001000100110001010011111100111011011110100111110011111110100001110100001110
11111010111111111111100011101101001001010001001100000011001001101111000111111101000100001111110111111001000001110000100100000001
11101111111010111111101111110100111111001111011000000011111100101111100100001001000100101110000100001011111101000000111000001111
00000010000001100000101011111010000010010000011100001010000101111111010011110101000010001111000100000100000001111111011100000001
11111110111111001110011100101000111111101110110100001011111100101111111100010100111110100000000011110111000100010000001000000010
11110110111011010000110011110110111111011111111100000010000001110001011111110001000101101111001000001100000000110000000100000001
00000100111111101110001000000000000101000001010000001000000010100001000100000001000000011111111000000011111101111111011000000010
11111000000011011111101000001101111101000001011011111010000010101111111000010001000001111111011000001101111111111111110100110101
11111111000001000001000011110010111101001111010011111100000000010000101000011001000101010000011111111010111111001111000100000010
11110000000100000000000100010000000001011111010111111001111101001111110100001001000100110000110111110011111110100000110011111000
11110111000101000000111000000100111111100000010000000001000100111111000100000111111111111111100011111111111110101110101011110010
11110101111110010000000011111100000000111111111111110011000000011111100100000000000000011111010100001110000011011111110000000100
11110111000000101111100111111111000000101111101111110110111100010000101011111111000010100000111011111011111010101111111011111100
00001110000100001111111100011001111111010000110000000001111101101111101011101101111110001111011011111000000000100001101100000100
11111001000010101111010111110000111101001111010000000011111111100000111000001110000001011110111111101110111101000000110100000100
00001000001000110000110000001111111100000000000100000001000000001111111111101110111101111110110011111110111110010000011111110001
00000111000000010000010111110000000110101111111111110010111110000000111000011000000100001111001111111000000000010000000100000101
00000001111110001110011100001000000010000000001100001010111100100001000000001000111111010000101011101011111111011111110111111111
11111111000011100010000100011010001010001111111100000011000000010000001100000110000011110001001000000000111001100000110111100101
11101100000000010000000000010010111011101110111100011000111110011111001011111111000000010010000111111010111111111110001000001111
00001001111111110000010011111010111111110000100000001111111100001111001111110100111010010000101111101101111101110000111000000011
00000001000000001110110111110000111101011111100111110110000001011110111111111000111111000001010011110001000001001111001011101010
11111101111110111111111111110101000011000000111000101101111110000000001111110010111111000000010011110101000101011110111111110000
11101111000000010000110000111010000010001111011111111001111100011111011100000010001100011110111111110111111111101111011100000100
00011000000000011111101111110011111101111111001111111100111110111111101111110111111110001111111011110011000100000000100011111101
11111010000101011101101011111111000100101111110000000010000010010000001011110101111101010000000000001001111101100000100100000001
11111110111110001111010011101100111110101111100000000010000011100001011111101100000001000001000111101100111111010000011011110011
00001100000000011111110000001011000110011111001100000111000100001111110000000011111110011111111000001001000000110000101000000101
11110111000000001111101111110010000011001111101011111000111000010001000111101110000100110010101011101011111011101111011111110101
11110101000001101111100000011001111100100000011100000011111110011111101111111110111110101110100000000100000000100000001100000000
00000001000001110000010111110001111111010010011111101000000010011111111000010001111111010000010100001001000000010000110100001000
00000000000101011111011000001000010011011110110000000110111111011110011111101100111110001111110111111011111111111111111111110110
00000100111101101111110011111001001100101111101100000001111101000000000011110100111100010000000000000111111110010000000111111100
11110101000101101111111000000011000001010001010100000100111110100000000111111011111111111111010011111011111011110000001011111100
11111010111010001111010000000010111101001111100011111010111110100000000111110111111011010001000111110011111110111111111111111010
00001001000010111111011111100101000011111110100011111100111111111111100011110001000001101111000100000000111110011111111100000100
11111011000000111111011111111100111110011111111111101101000000000000000000000000000001000000000111111001000011010000101000011001
11111001111101001111000100001111000010110000101011111011000001011111011000011000111101110000001000000011000001101111001111110111
11111110111100011111001111110101111101110000011100000011111101001111001111111101000011001111010100010000111110111111100011111111
11111100111101010000000011111111001001101111000011111001000010101111101111110111111111101111001111110001000010111111100100010101
11110110111110101111001100000000111111101111101100001110111101001111110011111000111101111111111011111100111100101111011100000001
11111111111010011111110100000000111110110000001011110100000000100000011100001010110111101111100011110110111110001111011100000111
00001001000000010000001111110100000000111111110000001111111011011111110011110100111100101111101011111111000000000000000011111010
11111001111101111111101100000000000010011111110011101001000110011111011011101011001001011110110111111101000010011110101111110110
00000010000100100000000000000000000101001110111011110111111110110000000000000011000001010000011100011000000001001111100111111001
00000110111011001111110011101110111110000000011111111001111100111111111111111010000010001111101111111101111010011111110111111010
11111110111111110000000011111011000010000001001011110111000110011111110111111011111010111111110100000010111101110000100011111111
00001010000011011111100100001110000000011111100100010000111110101111011111110001000010110000011000001100000001010000000100001110
00010010111111111111011111111100111110101111101100001010111110110000010111111010000000010000010111100010111110100000101111110000
00000110000010001111110000000110000000111111101111111100111110011111111011101000000011010000100100001000000001101111101100001001
00000110000000000000110111110011111101100000000111110010111111101111111100001010111111110000010111111000111100101111111000010001
00010010111110111110101111110110000001111111100100000100000001100000101111111001000000111111100011101110111100111111110011110111
00011100000011011111001011110101111110011110111011110100111110001111001111111001000001001111101100001101111010110000100111011011
11111101111110001111111111111001111110000001010000000100111111101111010111110011000000001111111011111101111110011111001000000001
00011010111001100000001111110100000001101110100100110101000011100001011111111000111110111111100100000010111101110000001011110100
11111010000001101111111100000011000010001111011000010101000000000001011100000101111100101111101100010010000000111111011000000000
11110010111110100000001111111110111101101111000000000010000101011111010000010011111101001110111100000000111110001111011100000010
00001001111101000000000100010111000111111110111000001110111100100000001100000010000001001111001111111011000001000010010000000000
00000110000010011111111111111101000000000000011000000110111111010001001011110101111101011111001011111001000100000000100011111000
00011011111101001111101000000101111000000000001000000111000001001110111100011001111110001111011011101111000100000001100000010101
11111010001010111110111000011010000001100000010000000100000111001111011000001000000010000010110111111000111110100000001000000101
00000010000000100000111000000011000000111110101000001100000010111111111011110101000001000001010011111000111111100000101100110101
00000101000000110000001011110000000001100000001000010101111010111111100100010110000000011111011111110100111101000010010100001100
11111100001101000000100011111011111100000000000011111010000000101110011111101001111110101111100000000010111111011110111011110110
00010101111101110000000111110011000001001111101000000011000100000000100011111000111100110000011000000110111010011111111111111111
11110110111100101111111011110111000000010000010100010101000001110000000111110100111111110000001111110100111101111111111011110101
00001000000010110000001000010000000001001110111011111101111111111111110011111101000100000000101111111010111100101111100111111010
11111010111111000001011111110001000001101111100000000111111101100000111111101011000000000000001000010111000010111111101000000111
00011011000010000000011111110011111101111110011000010001000001000000001111110011111111101111101111111111111110100010010000000111
00000110111111101111001011101110111110011111011000000001000000100000001000001011111011000000010111111010111101011111000011111001
00100010111101001111011111110100111011111110111111111101000001001111010000000001001001001111010011101111111111111111011100000010
11101111111110100000000011111101000100111110101100010000111101110000011100100001111100001111111111111101111111011111011100000010
11111110000100011111101100000011000001100000000000001111000000010000001111111001000011001111111111110101000010101111000011111110
11111011111111000000000011101100000010101111110111110111000000111111110111110110000000110001000111101000111101001111011000100110
11110000000011101111111000001100000100011111111100001010111010011111111000000000111110100000000000000101111101011111101000000011
11111101111100001111001000010001111100010000101000001111000001101111110011110110000110000000100111111101000001111111110100000001
11111001111100010001011011110011000001000000110111111111000000100000000100000100111010011111011011111001111101011111100111111010
11111001111101111111000011110010000100011110111100001000111100001111010111111000111111000000110000010000000010010000000011101000
11110010001000110010111100010000111111111111001000011000000001011111100000010110000001100000011000011100000000110000000000000111
00011001000000010000000000001010000100101111100000001001111110100000001100000010000001001111101100000011001000100000001000000010
00001011000110111111001011110001111110010001111100001110000100100000101111101001000000000000011000010010111101011111111111101111
00010000111111101111111100000010111111101111101100000111000010111111011100000101111101100000010000010010111110100001110100000000
11101110111111111111010111110101000010111111001000100001111011111110100100001011111110100000010100001001111100101111100111101100
00000001000001001111110100000000111111001111011111110011000000001111111100001010111010111110100111111010111110100001110111111011
00000101000011100000000011111100000000011111001011111000000011010000100111110111000000000000100011111001111111110000111000011011
00000001000101010000000100000010111101111111101000010100000000101111101111111010000010010000000111111101111100100000000011111011
00001011111111001111101100000100000100011111111100011011000001011111011000000100111101110000001100000100000011010000100100000000
11111101111111100001000011111001111110001111001100000110111101101111000111110110111011000000101100001010000101110000010000000100
11110100000000001111010100001101000011010001110100000001001000100000011000000000000011101111111011111000000001110000011100000000
11111111000100000000010100000001000011101111000111111011111101001111001100001100111101110000000011111100111101111111101000001101
11110011111011110000000000010011000010100000110000010000111100110000111000000101111100000000011100001010111111011111100000000010
00000001000001001111100111110011111111111110111011111101111101100000000100010011000011101111011011111011111010110001111111111011
11110001000011100001000100001000111111010000100000001111111011011111110011111000000010100000100111111101000100000001000111111101
11110010000000111111101011110011000001001111111100000111000011100000110000000111000000111111100000001010111101010000000111110111
00000000111101101111100111101010111110100000000011111010000001110000001011110110111110111111110000001000111110111111001000000001
00000010111100000001000111101111000010001111111000000000000000000000000011111001000010101111110111111011000001100000101100001011
11101101111110000001011100001001111101011111101111111001111111111110010100000011111100111111110100011010000001111110111111111100
11110111001000111111011111111001111110111110110000101010000000001110100011111100111111011111100011110011000001001111001011110100
00001011000101001111000111111011000011101111100100010000111010100000001000000100111111000000010011111100111100110000111111110010
00100111000011110000001111111011111111011111010011111101111111110001000100001101111111010000100000000110111011111111111011111100
00001000000000110000000000000010001011101111011011110111111100011111100000000010000001000000000111101110111100101111110100000010
11111111111111111111001011111101000001110001010100000011111111000000100111111001111110011111100011110100000000110001011100000101
00001110000011111111001100000101110110011111010111110100111111011110101100001101000001000000000100100100111101110010010011100101
00000011111100010000000011110001111111011111000000001011111100111111110011110110000101011111010000000011111110110000101000000111
11111000000010001111101100010100111101010000000111110011111001011111101011110110000010111111010100000010000000001111101011111010
11101100111111110000001111111110111111111111001111111010111110100000111011111101000000100000101100010011000001010001110000010110
11110000001101010000100000010100111101110000001000000101000010111110110011110100000000011111000000000110000000111111010100000000
11111101111111000000010000100000111011100000011000000100111100101111100000000011111101110001011011110100000001111111011100010011
00010011000010111111010100000011000000110000010000001100000000111111100111111001000100011111100000000001111111110000100011110011
11111100000001010000110000000010111101000000001011111001000101011111010100000000111101001111100100000011111101010000101100000111
11110100000100010000100100000000111100000001001011101100000011111111111011110101000001001111101111111001111111110000010000011100
00000010000011111111011100010101111100001111111101000000000010000000000111101111111111110001100111101001111111010001101011110100
00000101000001010000010100000001111110000000011011111001000001011111101011111001111110001111001111111000111100100000100100010110
11111111111110000000011111110100000011111111101011111111111101011111111011111000111010100001000111111100111101011110111100000101
11110111000001010000001100000111111111011111100000001110000001000000111100100011111111100000001111110010000010111110011011110010
11110011000001000000001100001000111010110001010011110010000100001111000000011000001100000001000000000111111101110000010100000000
00000001111101110000001011110111000001101111100011111011000100101110111111111100111111101111111100001011111100010000110100001111
11111110000011010000010111110110111111110000100000001011111101100000011111111100000000011111001111111001111111111111010100010111
00001001111110010001000111101101001010110000001111101101111111110000011011111011111010011111010100001110111110111110111111111000
00010010000000100000101111111000000001010000000111110000111101000000010111110111111111101111110111111110111101010000000111111010
00001100111011101111110000000101111101111111111111101100000010111111000000000001000000011111111111111011000100100000000111110100
11110001111010111111001100001011111111100001001100000111111101111111110111110111111110101111110011110010111011110000010100000000
11111010111011010001101111001100000011001111110111111101111111011111011000001011111111100000101000001011111110011111111100000110
00000010000100010000010111110111111110111111100111101011111110110001011100000110111110100000000011110011001001110000101011111101
00101101111110100000001011111110111011110000000100011011111110010000000011110111000000101111101011110111000001111111101000001101
00010010111111001111101111111100111101110000010011111100000010001111001100100110111110000000010100000110111110101111101100000101
00000111111100100001000011111110111100110000000111110110000011000000010111111011111001001111001000001010111000100000100100010111
11111010000010110000110000000000000001010000001111111010111100101110010000001101111100011111111111111101111111100001100011111000
11111000111111001111011111111111111101010000010011111011111011100000000011111001000011110000011000000001111101110000111111110001
00010100111101010000101000001011000100010000110000100000111011010000110011111000000000101111110111111111000000011110010100100001
11110100000001011111111100011011000010010000100111111000111110011111100111111101000110001111110000000000000010101111101000001011
00000000000001011111001111110001111110110000011000000110111100010000001011101111111101111111111100000100111100110000110111110110
11111101000000001111011111111001111101110000000111111111000000001111101111101110111100001111110111111101111011110000000011111001
00010001111001010000010100010010111110010000010111111111000000010000110100001000000000010000000111110111000010111111000011110010
00001111000010010000011000000101000010010001011100010110000000010000101000100001000001100001101100000011000101000001001011111101
00010111000001001111010011111001000010100011000100000000000010111110110111101011111010100000111011111011000100100000101100000011
00000000111110011111000011101111000100110000101011111010111110111111101011110001111100010001000111111110000001000000000011110011
00000011111101001111111011111001111011101111111100000100000010110000001111111000111101011110110100001101111101101111101100001010
00001001111101101111100011111100111111110001101111111001111010011111111100000010000011100001100000000000111001111111000100001100
00000111000010000001010011101111000000100001100000000100111101011111100000000001000011110000001100000101111110111111010000000001
11110101000000010001100000001011111111101111101000001000000100001111101100001110111101001111100100000011000000001111010000000011
11110110000101011111110000000000111101010000001111111101000000111111111000011101111111011111011100001110111100000000101111101111
00010000111011111111101100001000111110111111010011110101000010100000111100010100111101001111100011110010111111111111101011110101
00000101111011111110111111110001000011001111110100011011000000110000101000001011000000000001101000000000000010000001110111110011
11110111111100100001000011111111000100011111001000001010000010011111111100000101111100011111010100001111111111011110110111100111
00001110000001010001000100100011111111011111101011111000111101001111011011111010111001011110101011101111000000010001001111111110
00100000000010000001000011110011000011101111101011111001111101011111011111111001111110011111111100000000000001111111011011111100
11110111111100111111010011111000111110011111010100000011000000101111000000000011001010001111111100001001111101101111010000111011
11111100111111010000100000001000111110000000011011110111000011100000000111110111000000100001000111111101000011011111001111111100
00010001111100100000000000001000000000011111100100011001111110100010001100001011000000110001011011111001111101010001000011111011
11110100111111011111110000000010000001100000000111111111000000011111101000001001111101111110110111110100000100111111001111111100
00100000111111000000001011111001000001111111101011111000111111111111110111101000000011101111011100001010111110111111011000001110
00011111000010110000101011110010111100001111101100000000000001111111000011111010000001000000010100000111000010011111101011111011
00001101000000101111011100010101000000111110101011111010111101101111101100001011111100000001011000011010000001110001100100000000
11111001111100111111101000000110111100011111111100000010001001010000100100001010111100011111100111111111111010111111001000000101
11110110000000110000010100000010111110000000110011101010000011100000000011110101111101101111110111111010111111101110111111111100
11110100111110101111101011111001111111101110111011110000111111100000100111111000000000011111111100010100000010111111111100000010
11101011000110000001000000000101111111100001110011111010000001011111010011110001000010011111001100010000111100111111001000001000
00001110111110100000110011110101000001001110111100000000000100001111011000010001000000001111011011111011000011010000100011100111
00000010111111101111111100000010111101101111110111111100001000010000110111101100000011100000111100000111111100111110111100000010
00000110111101001111110000000000111011110000011000000111111110011111011011101111111101100000111000011101111100111111011111110000
00000001111111010000010000001000000101011111110011111011111100001111110000011011000110010000010011111001000011101111110100000000
00000111000101100000000111111010111110100000110000000010111110010000100000000011000000100001100011111100000000000000111011111001
11111110000010010001000000000001001000001111010011110011111011101111111011110111000001110000011100010110111011101111111100000011
00000000000010011111101111111111000000010000101000000100000001100000110111111101000010001110110111110001111111101111010100010100
00000011010001100001110100000010000000010000000000000111000000101111101011111010000000011111101011111011000010000000101100000001
00001100001001000000010100001010111111111111101100001010111100011111110100000000000011011111101011110001111111011111111111111001
11111000111110101111110111111010000000010000111000000111111111110000001111111011111100101111111111110011111100110010010100001000
11101110000101010000010011110001111101001111010011110100111110010000100011111110111011011111111111111100000011101111010011110100
11111011000100101111100000000101111110100001000011110111000001001111110011111100111110110000011111111100111101111111000011111100
11101111000101010000001111110110111111111111011111111110000011010000001011111000111110101111111111110101000000100001101011110100
11111010111101110000010100000001111110101111011011110001000001001111100000000001111110001111011100001010111001100000000000000010
00000000000000010000000011111010000000011110101100000010111111110000000111110110000000010000010111110111111110011110110100010100
00000001111110000001011100000110000011001111110011101110000000001111110000000111000001101111100000001110000010110001110111111010
11111010000010001111111100010000111110110000000011110110111111001111001100001000111001101111110111110101000001111111000000011101
11111110111110010000001100000111001001101111010011100100000001001111100100001111111010010000110011111111111101000001000011111001
00010111111111001111000011110010111011111111001011110100111100010001010000001110111101100000011100010010111100100000001100000101
00001100000000011111010111110100111101010000001111111111000001001111101011101111111110100000100111110111111011110000100000010010
11110011111101101111101100010010000000001110011111111010111000111111111000000100111111111111100111111001000001011111110011111010
00000100111100101111110011101100000000101111100100001100111110001111111000010001111101111111101011110000000111110000010000100000
11111100000000001111100111101011111110111111100000111100111101011111100000000011000011111111000000000101111111010000010100001001
00000110111111001111101000000101111111010001100100000100111110011110111111110110111110101111010100000000111111100000001000000110
11110010111110100000100011110100000011010000110100000001001101110001001100000001111110010000011011111110111101011111101011101100
00010100111110011111110111111100000100110001100100010001111101001111011000000111111010101111100000000000111101100000010111110001
11111100000010010000001111110001111101111111100111111000000001100001100111111011000100010000011100000101111101011111110100000000
00100001111101011111010011110111111101001111101000000110111101010000010011110110111101101111010011110101000000011111111111111010
00001010111111111111111011101100000010010001010100000011000010110000000111110010111101100000100100001110000111010010000011111010
11111011000001111111011000000111000001001111010000001011111111100001000111111100000001111111111111110110000000100000110111111000
11111011111100110001111111111011111110100000011100001011000000111111101000001111000101101111110111111101000000000000010000000110
11110011000000001111000000001001111110110000010100010110001000010000000000001011111110000000010011101001000011101111001011110100
00010100111111001111011100001001111011010000111000010001000001101111111111110101000001101111100011111100000001111110111100000111
11111111000000010000001000011011111011010000010111111110111100110000001111111001111100011111111100000101000000010000101000000100
00001011000110111110100000010001000110100000101100010000000001011110111011111101111101010000011011110110111101011111000100000111
00000000111110100000100000000111000001111110111000000000111110011111111011111001111111100001001100001010111110001111010100100000
11111111111100100000001000000001000100001111011100000001000100110001100000010011111011110000010011110101000101100001011011100101
11111101111111011111100000001000000000110000010000000000000011010000100100000100111111011111011000000101111100101111100000000010
00001000000010000000001011111101111111111111101000010001111100001110110011101100111111111111011100001101000010011111110100001001
00011011111010000000100000000001111100111111111000101111111100011111111011111111000000010000101100000010000011101110011000110000
11111000111111010000101100010011010001001111111100101001000001101110101011110011000000010000000111110110111100110000011100000010
00000000111111100000110100001111111111110000011111111000111110110000000111111111111101101111011011111111001111100001111000001011
00000010000011011111010100000011111111010000001100000000011111111111110011110101111111101111100111111011111110010000000000000100
11111111111110111110110000001100111110110000010100010001111111101111111100001101000100011111101000000000000011010000010111111111
00000100111010110001001000000000111110111111100111101000000010101111100100101000111010111111011000010011111100101111101000000001
11111100000111011111111000000011000001111110101011111011111100001111100111101101000000011111100100001010000001100000000100001100
11111011111111000001101011111011111101101111011011111011000000101111110111110101000000011111011111100101000001000000010000010110
00001101000011111111100100000010111011110000100000000011111111000000010111110000000000111111010100110101000001110000011000000100
00000010111011010000000111111101111111001111100011111100111101101111101000000111111100101110100100000100111111101111111100010001
00000000000000111110101011101101111011010010010111111111000000111111101011110111000000001111111011101111111110101111100011111110
11111001111111110000100111101011000000111110101100001001000010001111111111111111000001001111001111101110000000101111100011111011
00000110111101101111010011110011000110111111100100011011111100001111000000010010111110101111001111111010111110101111101100000111
11110100111100011111011111111110000000101111101011110010111110001111010111111011000000101111101111110011000011100000010000000011
11110110111110001111101000100100111101000000010011111111111110001111111000001111000100000000100011110101000101001111110111111110
00000101000000001111010111110100000000111111101011011110000000001110111000001110001010000000000011110000111110111110011011111011
11111001111110010001010000100000111100111111111000000111111111010000110000000101111110100001000011111110001110000000000100000101
11101010000001101111010111110101000001010000101100001110111110010000000000000001111100101111011111110110000001000001001111111011
00011100111100111111110011110001000011010000110000000100111110011111111111111010111110001111110000000100111111101111110011101110
11100001000010110000011100101011000000011110111100000000000110010000100111110110111111011111101111111101111110110000100011110010
00010011111110111111111011110011111111101111100111110110000001000000100100000101111010101110110000000100111110001111100100001010
00001101111101110000011100000100111111000000010011110100111111010000101100001001000101001111010011111000000101101111001011111011
00010101000010111111110100000100000011101111010011111101000000001111110011110011111100001111100000000110000101100000111011111100
11111101000010000000100011110110111110101111100100000110111100011111101100000101111101110001001100000010000011111111100100000011
11110101000111000000010011111010111110001111011011111110111101001111110011111010111101001111100111111001000001010000000011101110
11110100111100110000011011110010000000101111111000000101000000000000000111111100111111101111101100000101111110101111001000000110
11111001111111011111011011101111000110000000100011111111000001011111111100001001111100010000000111111010000001010000001111111101
11101100111100110001110100001100000010000000101000010001000001001111111111111000111101001111111100000111000010001111111100001011
11110101111010001111111100000100000010011111100100000010000011001110111011111011111001110000010000000100000000010000001000011100
11111111111101011111111011111000111100110000111000000010000001001111011011111011111101000000001011111011111111101110101011110100
00010001111011010000010011111001000010011110111000000000000000100000001011111110111101100000100100000101111101100000011000001100
00000110111101010000001011110110111101101111000011111100000110010000001011111000111101010000000111111111111110000000110111111011
11110101111101011110111100001101111100111110101000000110000001110001111011110010111110000000010100010100000000110001010111101100
00000000000000111111101100010011111110011110100111110011111100101111110011111110111111110000101000010110000001001110100111111000
11111111000100010000000000001001111110010001000011111010111011001110110111110010111111011111001011111110111100110000110111111011
11101101111111011111111000000000000111001111110100001111111110111111111000000010000000001111010111110111000001001111100000001011
11110011111011111111100000000111000011110001001100000111111110110000001000110000000001111111110100000000111100111111101111110011
11111000111011100000101100000100111111111111000100001001000001000000011000001011111011101111001100010011111000111111100011111000
00001110000100111111001011111000111101010001010011110001000000010010000100010101111111101111111000000001111111000001000111110001
11101101000010000000011011111101111100100000001100010000111110101111111000001011000000100000000011111101000000000000011100010010
00010010111100111111110011110000111100110001001111111001000001100000111111111011111111101111100100100110111110011111000011100011
00000001000001101111110011111101000010111111011100100000111110011111010100000011111100100000001111100111000010010000000011101100
00001010111111001111010000001000111011010001000100000011000100111111111011111010000010010000001011110111111110011111111111110010
11111101000010011110111000001111111110000001100011111111111110101110111111101111000000010000001000000100111101100000110011110000
00000000111011110001000011111000000011110000110000101110111100110000010111111110111110110000100111101100111100110000101111111010
00001001000000111111101100000111111011110000000100000111001010010000110011111010111111010000110100000101111111100000101100000001
11110011000001010000101011110010000011001111111000000101000101011111010011111110000001100001011000010011111111011111011000100010
11111100111110100000000111110100111111101111110100000101000001110000000011111111111110001111010100000101111111000000010011110011
00000000001000110000001100000100000000111111101111111111111110110000000011110000111111011111000000000100111100110001000000000011
11110110000100101110100100000110111101010000010111111101111101011111111111111101000001011110010111111111111101111111010111111010
00000111111111111111111100001001000110010000000100000010111110011110101100000010000110000001000100010010000000001111001011111001
00010011000001011111101111111000111101100000101111110001111111001110110011111010000010110001001000000001000000101111100100000100
00101011111110111110111100001000000000110011011011111111111111001111110100011001000011111111011000000111111010010001000100001110
00001011111100111111100011111100111110100000011111111101000001000000001100000101111011000000000011111100000001010000101100000000
11110010000000111110111000000011000101000000100011101001111111111110101000001000111110110000110000001001000011111111011011110110
11111011111110000000001111111111111111011110100000001110000000010000010000000000000011010000010011110011000100101111111000101011
00000010000001011111110111110110000000011111011100001110111111111111011111111010111110010000000100000011000000010001010000000000
00001011000100011111101000000000111101001111011000000011000000010001101111111001000011000001011000000000000000001111111100001010
00001001111101110000111111101011111101010000110111101101000011110010000011110011000101001110101111111110001000000000011000001100
11110010000011101111010111111101111111101111111011111000000001111111110100000000000010100000000100010111111111101111100000000111
11110110000001111110110011111010000001111111011000000101111111010001001011101101111110000011100011110100111100110010000011111001
00010100111101011111010000000100000000100001110011111001111110100001000100010010000000111111100011111101000001001111110000100100
11111000000001001111010100000011111111110000000111110011111110011111100100000001111010110000111000000001000000000000011000011101
11101000111101111110101100001100000000010001011011110000000011011111011100011001000011010000000000011101111111011111111000000010
11101100000000110000000000010001000010010000001000000000000000000000011000000101111011100000110111111001111111000000100111111100
11110001111101000000001100000011000011101110101000000110111101000000100011110110111010101111100011110100111011011111101011111011
00001110111101101111111100000100111101100000011011111110000011010000000011111011111111011111100100000001111111011111110100000010
11111000111111110000010011100110000011100000111100000000000110110001110000001010111011000000000100001111111100011111101100001110
11111101111110100000000111110000111101110000101100100101111100011110101000000111111100101110010011101111111110111111101100001011
00001111000000011111001111111011000001101111110100010110111111101111100000010010111100011111110000000001000001110001011100000011
00000111000011111111111100001000111100010000101100000001000000001111001111101010111110100000101000001100111101101110110111110111
11111101111110110000010011110101111110100001010111111101111111101111100100000000000110010000000111111100000010101111011011111111
11101010111110000000001111111111000100100000111000001111111110011111100100010001000000011110101000000011111111100000000011111101
11110011111101111111011000000100111110110001110111110001000000101111111011111110000101101111010111111111000001111111111000001111
00010001111111100000000011111111000001011111100111111001111111110001011000000101111101000000010111111001000001010000000111111111
11110100111110110010010011111111000010011111101011111000111110001111100000001001000000000000000100010011000010000000000000000010
00000001000100001111101111111001000001101111101011110110111110010000011111101010111101111111111111111101111011001111100011110101
00000001111100110000101100001010000001111111010100001110000000010000010100000111111111010001011111111110000000001111011100001001
00000010111111001111110111111010111110001111001000001010111100110000011111111111000001010000010100011011000001110000101000000010
11110111000000000001000111111100000000010000000011111101000010001111101011110101000100111111101000000011111111101111010111110011
00000011111101111111011111111001111111101111111111111000111111011110111011110111000001000000100011111011111111011111111000011000
11111010000001110000000111110110111101111111011011110100000011000000011100000111000010011111110011111101111110011111101111111000
00001001111110100000101000000111111111010000100111111010111101100000000111110110000001011111100011111011000001001111100111110010
11110001111110110000000100000111000001101111010100001111111101101111101111111101111111011111101100000100000000111111100000000010
00010111000000111111101000001101111111011110101011110000111111011111101011101111111100100000010011101111111111101111010011111111
00001010001110011111100011101010111101000001100000000011111110011111010011111111000010101111110000000100000001111111111111110100
00000101000000111111101001000001111111010001100011111000000000010001011111111011111101111111010000001011111111010000110011110001
00010100000000000000010000001110000110001111011011101110111101110000000100010110000011110000010111111110111011111111001000001100
11111101000100100000101100001000000001001111010011110111111100100001000111111001000010110000000111110111000001101111010111111010
11111101000011100000111000010100111111010000100111110010111110000000100000000000000001111111011111111100111101111111010111111101
00010001111110110000001011111110000100100001111111110110111110110000110011111011111110011111110011111111000000111111110111111011
00011010111011110000100011111110111100011111110011110110000110100001000011101111111100001110101011111000111111010000010011110100
11101100001000011110101011111110000000100000011000000100111110100000001011111001111010111111111100100100000000111110110111110011
11101110111111101111111011111111111101101111000011111110111110001111100111110010111110000001000000010001000001110001001100000010
00000010111011011111110100010011111000100000010011111110111110010000110111110001111111100000100100000011000010010000001011111001
11111001000000111111111011111100111111011111111000001001111111101111110111110001000001101111111000000101000000011110100111111101
00000100111101100000010011110101000000011111011011110111000000001111111100000011000010101111111100001100000000010000100011111011
00010010000011000000010000000100111110110001010100000101000010010000000000001010111100101111110011111011111110100000000111111111
11111011111110010000110111110110000000011111100011111001000110100000001100001001000100100000011011101100111110111111101011110101
11110101111111111111010111101111111110001111111100010000000001111111001011111111000000011111010100000101000000100000001100000001
00000011000010101111101101011011000000101110110000010111000001011111110000000001000001001111011100010001111110101111100100001000
11110111000110101111000011110011000001101111111111111010111111001110111111111000111110001111010111111111111110000001001011111100
00000000111110000000001111111000111011011111100011111101111111000000001100000001111110000000010011111111000100111111100111111101
11111010111111100000000111110010111110001111001100001011000110010000000100000100000000111111111011110110111111100000001011111000
00001101000100010001001011111001111010001111001111110010000000111111101000000010000000000000010100000101111111111111100000000100
11110100000000000000000100000001111110011111011000001010000001101111110111101110000100111111110111111010111111011111100111111111
00000000000010100000000100000001001000010000110011110010000010100000000000000001000010111111001111111001000001000000001011111011
11111011000000111110110111111111000001000000100011111000111111001111110000000100000010100000001100011110000000011111110000000111
00000011000010100000111011101111111111010000001011111001111110110000010111101111000000100000011100000101111111110000000011110101
00100100000010100010011100000110000011001111010000000100111110100001000000000001000011001111110111111110111110111111111011111111
11111011000010011111101011111101111111100000101000000001111101110000010000000010111110000010011111110011000000001111001111111011
00010010111111110000110100000101111110101111101000000000000110001111010000000110111110100000100011111110111110110000101011111110
00000001111111101111101011111101000010001111110111110001000000000000011111101100000010010000100000000010000010010000101000010010
11111111111110010000011100000011111111100000000111111110111110011111111111111011111011100000010111111010111111000000000111111010
00000001000000101111000011111011111101100000101000011001000001000000000000010001000010111111100111110111000000011111101000000000
00000101111010101111101000000000111101001111110000000001111101101111111000000010111101010000100011111000111101010000111011111110
00010011111100101111111011111010111010101111101011101111111110001111001100000000111101101110110000000001111110001111100011101111
00000110000010110010000100010101000010010000110111111011111100111111101111110110111011111111001111111101111101110000011100001000
11110101000000000000110011111100111110110000101000001001000000111111010100000111000010001111111100010011111101010000000000000011
00000100111110011111100000001100000111011111010111111000000000110001000111111001111010101111110000010001111111001111110111101110
00000011111111000000000100000011111101101111100011110110000000001111101100001100000001100000101000001010111110110000010100001101
00000000000011110000000111111110000100000000010011100111000010100000110111110010111111010000001000001100001011110000001100100001
11110110000000001111100111110111111111010000110011110110111101011111100100011100111100110000000011111100000010011111001111111101
00010000111101101111110011111000000000101111100111110110111101001111001000000010111101001110101111101101111101011111011100000010
00000111000001000000010111110111000101001111101111111110000001001111001100000010000001111111111111111101111100011111001111110011
00011000000000101111011000000000000001110000000100000011000000010001010100001010000010110001101100001110000100110000000100000001
11111011111101111111100111111010111110111111100111101100000000000001100011111001111111010000010111111010000000000000110011111110
11111010111110111111111000000000000000000000001011111001000010111111101111111100111100100000010011111110111111111111100000000101
11111110111100110001001000000100111110000010100011111101111101000001100011111101111100100000000000000010000000110000110100000101
11111111111011100000100011110011000000111111101111110011000000011111011011111000111101111111011000001111000001100000101011110111
00001000000001011111000100001000000101001111111111111010000111110000011111111010000001001111011111111001111111010000001100000000
11111001000000111111001111111011000111111111110000000001111100110000001100001001000001011111111111111011000000111111011100010011
00000001000010011111010111111011111100101111110100000011111101010000101111110100000000110000100011111101000110000000100011110011
00010000111110100001000000001100111010110000001111110011111110101111000111110100000011101110111011111110111111011111110000000001
00001000111011010010001111110011000100100010001100001110000000011111100111111010111100110000000111110111111110110001100000000101
00000000111111001111011111111001111111110000010111111001000001011111111000000010111111011111110000001111111111101111111011110111
11110011111101110000011000001011111110001111001000000100000011010000011011110101111100011111111111111111111101010001100011110000
11111001000011101111010011111101111110001111000000000111000001011111101111111001000001101111010111110100111111000000001000010010
00100100111100110001101111111100111110111111100011110111000100011111011100000011111111010001001100001111111100011111111011111110
11111110000010100000101011111001111011010000100000000111000000101111011111101011000000111111010000000001111110100000010100000001
00000110111111101111100111111010111100011111010111111001111010111111000000000001000010010000000011110101000001001110111011110001
00000100000001011111100000000111111111000001101000000101111110101111101111100101111111011111100100000001000000111111100011110011
11111001000101110000001100000000111111110000000000000010000001110001110111111010111101110000010100000010000001011111011000011010
00000010000001101111110000011011111100001111111000001010111101100001110011111010000000110000001100000001000000001111011100000111
00011000001001000000110100011011111101101111000111111001000000101111110000010001000001011111100000001001111101000001010011111011
11111010000100100000011011110011001000001111100000001001111111110000011011111000000000000001100111111100111111011111011000001011
00001001111100001111100011110101111100101111011000001011000001011111101000001000000001001111101100001000111110000000111000010010
11110100111100101111110000001110111111111111001100010010000000000000110100001011111111000000000011111110111110001111011100001111
11110011111110010000100011111110000010111111111011111011000101011111100111111111000001101111001000001101111111010001101011101110
00001000000010001111011111111101000000110000010111111100111010001111011000001111000010010000011011111011111111111110101000000100
00001110111110111111110111110110000001010000001111111111111110110001100000001110111101001111110001011000111101111111010011111100
00001111111101111111010000001101111111001111100100000011000100000000100100010100000000101111101000101101111111000001001011111100
11111010111101101111011000001001000010100000011111110011111111100000000111110101111110000000011000000111111101010000011111110010
11110000111111110000010000001111000000010000001100010100000011101111111111111001000101011111100100000111111110011111010111111010
11110111111100101111010011110100000000011111110000000011111110000000110111111100111111011111110111101111111111001111110111110100
11111111000101000000000011111011000010110000100011110110111011111111111011110101000000101111000100010010000111111111110000001101
11110101000001100000101011110011111101111111011000010110111110000000111111110100111110000000111011111001111110100000000100011101
00001100111100001111111000001001111110101111110011111000000001000000010100101010000001010000001011111011000000011110111011111000
11111110111110100000100011111001000010010001000100000001000000101111101011111010111111011111101100000111000001111111111000000001
11110101000001110000001111110101000001110000001111111011000010110000100111111111000001011111101011111110000111010000000100000000
00001110111100000001001000000100000010101111111011111111111100001111011011111001111101010000110111110100000000001111000011100111
11111010000100010000101111111000000001010011011111111000000000011111011011111000111110111111001100001001111011101110110111111111
11111110111010011111101011111001111110111111111011111011111101111110011011110110000111110000111011110010000111101111101111111111
00010101000000011111011011111010000000111111101111101111000011111111111111111011000001010000001100000111111110001111011011110011
00001011111011101111011011111101111111101111000000001110001001011111010111111000001000010000010100000011000010010000100111111010
11110110001001100000011111111010111100011111000011110111111111101111011100001000000010011111001111111101111100000000010011111010
11110011111110000000111100001001000101011111000000000110000010101111100111111011111110110001001111111000111110101111011100000011
11111000000100001110111000000010111111001110101011110010111101101111000011111110111011111111100100100101111100010000001011111010
00000010111100010001011100001101111101011111011011101101000001100000000100000000111100110000001100001011000011000001111011111110
11111110111111101111001100010100111111110000100000001100000000011111000111111101111010010001000011101100111101110001010111111000
00000111111111001111011011101110000010101111111011111100000100101111001100001101000010001111110111110010111011100000011011110001
00000001000001110001001000011000000000000000010111110011111010011111010111101010111100010000100111111000000011011111100011110001
11101110000000101111011000010100000000011111011000010110000111110000101100001001111111011111100100000010111110100000000100000011
11111100111110101111110111111010000010011111011000101000000010010000011100000110111101010000010111111000000010101111010111110011
11101100111110110000011111101100111110000000101000000011111100001111001111110010000101001111101011110011111100110011011000000101
11111111111110111111110100000010000001001111100011110110000000001111100100000001111101011111110000001111111100111111100011111000
11101010111101011110101100000010000001000000111100000110111101111111101011111000111111000000011111101111111110011111101100000011
11111010111111101111110011111111111111111111001111111010000000111111101111111110111110100000011011110001000000110000100100001101
11111101111111100000011111111101000001101111101111110101000011001111101011111001001001111111111000000011000010101111100111111111
00000110111111001111110100001100000000111111100111111100000100111111100111111000000001001111100011111101111111001111101011110111
00000000111111000000101011111110111110100001000111110011000010010000001000001110000010100001110011111110000001000000000111110010
11111000000001111110100011111110000001000000001111111010111101110001000100010100000010100000011100000000111111110001110011111111
11111110111110110000001111110101000010100000001011101101111110001111111111110110111111101111110100010101000011011110101000000011
00100000000000011111011111100111111110010000010011111010111011110000000111110101111011101111010000010000111110111111011111111001
00000110111110100000010100000100000001111111100111111011111101110000001011111000000010000001111011111110111010101111001100000100
11110100000011000010000111111001111101100000000000000111111011101111110100000010111110011111111000000000111111000000100011111000
11101111111110010010000000000100111101101111100011101111000010111111001000000011000001011111101011111110000010000000001111111000
11111100111111010000000011110100000001101111001011101001111101101111010111111001111110100000000000010001111101101111011100001001
00001100000001011111111100011000111011101111111011110100111110001111011100000010111111010000010111111000111110101111011011110010
00000001000111010001010000000010000001101111100100000011000010010000000011101110000110000000011111111001111101000000001100000011
11111100000001001111111100000110111110111111101100001000000011101111011100001011111101010001000000010111111111011111100100011100
01000010111001101111101011111010000000010001101100001101111110011111111011111101111110000000000011110011111111010001100011110100
11111011111100101111101011101110000010100001001100000001000001011111001011110101000011101111000111110001111111000001011111111001
11111110111111111111010011111011111001101111000011110100111111000001000111111111111110011111100111111011111100001111110000001101
00001000000010111111101000000111111101001111111000000101111011010000111000000001000100111110111011111100111110001111100000001100
00000010000000100000000011111000000011011111100100001010000011100001000011111110000110000000000111110100000101100000011000000101
00001110001001111111010111110010111111011111111000000010000000101111100100000011111011101111011000000111000000001111101111111100
11111111000000111110101011111000000010000000000111110010111110010000101100100101000000001111111111111111111111010000001111111001
11111000000001111111010100001111000001100001101100000101111111010000001111110101111101110000001000000101000011010000011011111110
11110111000010000000111000001100111101110000011000001011000000100000001000000011000001010010001111101101000000011111001100000001
00000100000001011111011100011010111110011111001111110011111111011111101111111100111111010000101000001101111111110000010100001010
00000101111011011111101011110101111111110001001000000011000011001111000000011000111011111111111000001001000101100000000011111001
00001001000011111110110100000011111101111111010000010000111011100000000100000101000000111111010000001000111110101111101111111110
00010011000000111111101011110001111100110000010011110111000100100001101011111011001010111110011111111000111100010010000000001101
11111100000001001111110100011000111111011111111011111010000000001111010011111100111101011111011111111010111110011111111011110001
