00101101 00100011 11111111 00001000 00100100 11111110 01001000 00010001 00001011 00001111 11000001 00011011 00101001 11011010 11110011 01011101 01000011 00111011 11101001 00110110 00100101 11000011 00011110 00111001 00000110 00101000 10010101 00000100 00011001 11001010 01010001 11101101 11110101 11100110 00011101 10000000 11110111 00010100 00001101 00010111 00101101 00010010 00011110 00000100 00110001 11101100 00000101 00100010